{
  "version": "1.0",
  "truncation": null,
  "padding": null,
  "added_tokens": [
    {
      "id": 0,
      "content": "<|unk|>",
      "single_word": false,
      "lstrip": false,
      "rstrip": false,
      "normalized": false,
      "special": true
    },
    {
      "id": 1,
      "content": "<|pad|>",
      "single_word": false,
      "lstrip": false,
      "rstrip": false,
      "normalized": false,
      "special": true
    },
    {
      "id": 2,
      "content": "<|user|>",
      "single_word": false,
      "lstrip": false,
      "rstrip": false,
      "normalized": false,
      "special": true
    },
    {
      "id": 3,
      "content": "<|assistant|>",
      "single_word": false,
      "lstrip": false,
      "rstrip": false,
      "normalized": false,
      "special": true
    }
  ],
  "normalizer": null,
  "pre_tokenizer": {
    "type": "ByteLevel",
    "add_prefix_space": false,
    "trim_offsets": true,
    "use_regex": true
  },
  "post_processor": null,
  "decoder": {
    "type": "ByteLevel",
    "add_prefix_space": true,
    "trim_offsets": true,
    "use_regex": true
  },
  "model": {
    "type": "BPE",
    "dropout": null,
    "unk_token": "<|unk|>",
    "continuing_subword_prefix": null,
    "end_of_word_suffix": null,
    "fuse_unk": false,
    "vocab": {
      "<|unk|>": 0,
      "<|pad|>": 1,
      "<|user|>": 2,
      "<|assistant|>": 3,
      "!": 4,
      "\"": 5,
      "#": 6,
      "$": 7,
      "%": 8,
      "&": 9,
      "'": 10,
      "(": 11,
      ")": 12,
      "*": 13,
      "+": 14,
      ",": 15,
      "-": 16,
      ".": 17,
      "/": 18,
      "0": 19,
      "1": 20,
      "2": 21,
      "3": 22,
      "4": 23,
      "5": 24,
      "6": 25,
      "7": 26,
      "8": 27,
      "9": 28,
      ":": 29,
      ";": 30,
      "<": 31,
      "=": 32,
      ">": 33,
      "?": 34,
      "@": 35,
      "A": 36,
      "B": 37,
      "C": 38,
      "D": 39,
      "E": 40,
      "F": 41,
      "G": 42,
      "H": 43,
      "I": 44,
      "J": 45,
      "K": 46,
      "L": 47,
      "M": 48,
      "N": 49,
      "O": 50,
      "P": 51,
      "Q": 52,
      "R": 53,
      "S": 54,
      "T": 55,
      "U": 56,
      "V": 57,
      "W": 58,
      "X": 59,
      "Y": 60,
      "Z": 61,
      "[": 62,
      "\\": 63,
      "]": 64,
      "^": 65,
      "_": 66,
      "`": 67,
      "a": 68,
      "b": 69,
      "c": 70,
      "d": 71,
      "e": 72,
      "f": 73,
      "g": 74,
      "h": 75,
      "i": 76,
      "j": 77,
      "k": 78,
      "l": 79,
      "m": 80,
      "n": 81,
      "o": 82,
      "p": 83,
      "q": 84,
      "r": 85,
      "s": 86,
      "t": 87,
      "u": 88,
      "v": 89,
      "w": 90,
      "x": 91,
      "y": 92,
      "z": 93,
      "{": 94,
      "|": 95,
      "}": 96,
      "~": 97,
      "¡": 98,
      "¢": 99,
      "£": 100,
      "¤": 101,
      "¥": 102,
      "¦": 103,
      "§": 104,
      "¨": 105,
      "©": 106,
      "ª": 107,
      "«": 108,
      "¬": 109,
      "®": 110,
      "¯": 111,
      "°": 112,
      "±": 113,
      "²": 114,
      "³": 115,
      "´": 116,
      "µ": 117,
      "¶": 118,
      "·": 119,
      "¸": 120,
      "¹": 121,
      "º": 122,
      "»": 123,
      "¼": 124,
      "½": 125,
      "¾": 126,
      "¿": 127,
      "Â": 128,
      "Ã": 129,
      "Ä": 130,
      "Å": 131,
      "Æ": 132,
      "Ç": 133,
      "È": 134,
      "É": 135,
      "Ê": 136,
      "Ë": 137,
      "Ì": 138,
      "Í": 139,
      "Î": 140,
      "Ï": 141,
      "Ð": 142,
      "Ñ": 143,
      "Ó": 144,
      "×": 145,
      "Ø": 146,
      "Ù": 147,
      "Ú": 148,
      "Û": 149,
      "à": 150,
      "á": 151,
      "â": 152,
      "ã": 153,
      "ä": 154,
      "å": 155,
      "æ": 156,
      "ç": 157,
      "è": 158,
      "é": 159,
      "ê": 160,
      "ë": 161,
      "ì": 162,
      "í": 163,
      "ï": 164,
      "ð": 165,
      "ĉ": 166,
      "Ċ": 167,
      "č": 168,
      "Ġ": 169,
      "Ģ": 170,
      "ģ": 171,
      "Ĥ": 172,
      "ĥ": 173,
      "Ħ": 174,
      "ħ": 175,
      "Ĩ": 176,
      "ĩ": 177,
      "Ī": 178,
      "ī": 179,
      "Ĭ": 180,
      "ĭ": 181,
      "Į": 182,
      "į": 183,
      "İ": 184,
      "ı": 185,
      "Ĳ": 186,
      "ĳ": 187,
      "Ĵ": 188,
      "ĵ": 189,
      "Ķ": 190,
      "ķ": 191,
      "ĸ": 192,
      "Ĺ": 193,
      "ĺ": 194,
      "Ļ": 195,
      "ļ": 196,
      "Ľ": 197,
      "ľ": 198,
      "Ŀ": 199,
      "ŀ": 200,
      "Ł": 201,
      "ł": 202,
      "Ń": 203,
      "ha": 204,
      "Ġk": 205,
      "Ġt": 206,
      "in": 207,
      "čĊ": 208,
      "Ġs": 209,
      "Ġa": 210,
      "ar": 211,
      "Ġha": 212,
      "Ġm": 213,
      "an": 214,
      "Ġb": 215,
      "er": 216,
      "hi": 217,
      "he": 218,
      "Ġhai": 219,
      "on": 220,
      "Ġp": 221,
      "is": 222,
      "Ġc": 223,
      "ya": 224,
      "re": 225,
      "at": 226,
      "Ġl": 227,
      "ho": 228,
      "as": 229,
      "us": 230,
      "Ġd": 231,
      "<|": 232,
      "|>": 233,
      "en": 234,
      "it": 235,
      "Ġto": 236,
      "al": 237,
      "Ġw": 238,
      "ur": 239,
      "ing": 240,
      "na": 241,
      "es": 242,
      "Ġf": 243,
      "or": 244,
      "Ġkar": 245,
      "Ġka": 246,
      "Ġsa": 247,
      "ye": 248,
      "Ġho": 249,
      "Ġme": 250,
      "Ġj": 251,
      "ne": 252,
      "ant": 253,
      "Ġg": 254,
      "un": 255,
      "ra": 256,
      "Ġe": 257,
      "Ġki": 258,
      "ist": 259,
      "ch": 260,
      "um": 261,
      "ass": 262,
      "ti": 263,
      "ĠI": 264,
      "il": 265,
      "Ġtoh": 266,
      "ta": 267,
      "Ġke": 268,
      "Ġthe": 269,
      "Ġaur": 270,
      "istant": 271,
      "user": 272,
      "assistant": 273,
      "ou": 274,
      "te": 275,
      "Ġmein": 276,
      "le": 277,
      "ly": 278,
      "Ġh": 279,
      "ad": 280,
      "Ġse": 281,
      "om": 282,
      "ag": 283,
      "Ġbhi": 284,
      "Ġhain": 285,
      "Ġna": 286,
      "Ġre": 287,
      "ke": 288,
      "Ġli": 289,
      "Ġo": 290,
      "Ġtha": 291,
      "Ġra": 292,
      "ic": 293,
      "Ġko": 294,
      "ion": 295,
      "Ġy": 296,
      "ay": 297,
      "el": 298,
      "nd": 299,
      "Ġin": 300,
      "Ġba": 301,
      "ed": 302,
      "Ġja": 303,
      "ut": 304,
      "ent": 305,
      "'s": 306,
      "uj": 307,
      "ek": 308,
      "am": 309,
      "ul": 310,
      "et": 311,
      "Ġcha": 312,
      "ro": 313,
      "ĠT": 314,
      "ujhe": 315,
      "ri": 316,
      "Ġek": 317,
      "Ġkya": 318,
      "Ġit": 319,
      "Ġso": 320,
      "ve": 321,
      "Ġma": 322,
      "ga": 323,
      "ĠS": 324,
      "im": 325,
      "uch": 326,
      "Ġya": 327,
      "ĠA": 328,
      "Ġun": 329,
      "Ġyou": 330,
      "Ġpar": 331,
      "ce": 332,
      "ol": 333,
      "id": 334,
      "Ġhi": 335,
      "Ġn": 336,
      "gh": 337,
      "Ġand": 338,
      "Ġtum": 339,
      "Ġis": 340,
      "oo": 341,
      "Ġhum": 342,
      "Ġye": 343,
      "Ġlag": 344,
      "Ġst": 345,
      "ct": 346,
      "ab": 347,
      "se": 348,
      "Ġnahi": 349,
      "Ġsab": 350,
      "Ġof": 351,
      "ata": 352,
      "ir": 353,
      "ation": 354,
      "ĠK": 355,
      "ma": 356,
      "Ġlo": 357,
      "ĠB": 358,
      "Ġmujhe": 359,
      "ow": 360,
      "Ġne": 361,
      "Ġkuch": 362,
      "Ġap": 363,
      "Ġthat": 364,
      "Ġliye": 365,
      "ĠM": 366,
      "Ġbe": 367,
      "th": 368,
      "st": 369,
      "Ġv": 370,
      "ate": 371,
      "da": 372,
      "ise": 373,
      "hat": 374,
      "ust": 375,
      "Ġyeh": 376,
      "bhi": 377,
      "ge": 378,
      "are": 379,
      "ally": 380,
      "Ġde": 381,
      "and": 382,
      "Ġaa": 383,
      "Ġal": 384,
      "Ġhe": 385,
      "Ġmil": 386,
      "ĠH": 387,
      "ght": 388,
      "Ġpe": 389,
      "ĠIt": 390,
      "han": 391,
      "one": 392,
      "est": 393,
      "Ġz": 394,
      "Ġsak": 395,
      "Ġex": 396,
      "up": 397,
      "Ġwas": 398,
      "Ġus": 399,
      "ki": 400,
      "out": 401,
      "Ġdi": 402,
      "Ġfe": 403,
      "ath": 404,
      "ver": 405,
      "ah": 406,
      "ter": 407,
      "Ġkabhi": 408,
      "ĠP": 409,
      "Ġjo": 410,
      "pe": 411,
      "Ġwo": 412,
      "eri": 413,
      "ci": 414,
      "Ġle": 415,
      "Ġthi": 416,
      "ine": 417,
      "tion": 418,
      "Ġpl": 419,
      "Ġlagta": 420,
      "Ġdo": 421,
      "Ġfor": 422,
      "ck": 423,
      "Ġab": 424,
      "Ġban": 425,
      "ĠD": 426,
      "ĠC": 427,
      "Ġcom": 428,
      "Ġkarna": 429,
      "Ġga": 430,
      "ere": 431,
      "Ġkarne": 432,
      "har": 433,
      "Ġtho": 434,
      "Ġcon": 435,
      "ak": 436,
      "end": 437,
      "Ġfeel": 438,
      "Ġth": 439,
      "ess": 440,
      "Ġhota": 441,
      "ka": 442,
      "di": 443,
      "ĠR": 444,
      "ure": 445,
      "ot": 446,
      "ss": 447,
      "Ġmo": 448,
      "ekin": 449,
      "ry": 450,
      "Ġyaar": 451,
      "hiye": 452,
      "ood": 453,
      "Ġac": 454,
      "Ġkiya": 455,
      "Ġchahiye": 456,
      "ĠW": 457,
      "our": 458,
      "Ġtim": 459,
      "fe": 460,
      "me": 461,
      "ous": 462,
      "Ġbad": 463,
      "Ġtumhe": 464,
      "ity": 465,
      "Ġraha": 466,
      "ĠL": 467,
      "Ġmy": 468,
      "ll": 469,
      "ort": 470,
      "aan": 471,
      "Ġon": 472,
      "ment": 473,
      "Ġtime": 474,
      "ni": 475,
      "hut": 476,
      "Ġapne": 477,
      "Ġpro": 478,
      "'t": 479,
      "ers": 480,
      "ome": 481,
      "Ġan": 482,
      "Ġhu": 483,
      "ud": 484,
      "Ġwoh": 485,
      "Ġbahut": 486,
      "ati": 487,
      "Ġdek": 488,
      "und": 489,
      "Ġsaath": 490,
      "Ġ'": 491,
      "Ġlog": 492,
      "Ġrahi": 493,
      "aar": 494,
      "Ġlekin": 495,
      "gar": 496,
      "Ġwor": 497,
      "oor": 498,
      "li": 499,
      "la": 500,
      "ide": 501,
      "Ġhoon": 502,
      "Ġwa": 503,
      "Ġlike": 504,
      "gi": 505,
      "Ġr": 506,
      "Ġ1": 507,
      "haan": 508,
      "kul": 509,
      "ilkul": 510,
      "Ġsha": 511,
      "Ġsakte": 512,
      "hai": 513,
      "Ġjust": 514,
      "ith": 515,
      "Ġkarte": 516,
      "Ġbo": 517,
      "Ġhoga": 518,
      "Ġrahe": 519,
      "imp": 520,
      "ite": 521,
      "Ġmain": 522,
      "ĠU": 523,
      "Ġgaya": 524,
      "pp": 525,
      "Ġsoch": 526,
      "Ġplan": 527,
      "qu": 528,
      "Ġen": 529,
      "Ġpa": 530,
      "op": 531,
      "yaar": 532,
      "Ġsu": 533,
      "Ġzar": 534,
      "ld": 535,
      "Ġsc": 536,
      "Ġwe": 537,
      "Yaar": 538,
      "ko": 539,
      "cha": 540,
      "ĠKya": 541,
      "Ġor": 542,
      "ence": 543,
      "hot": 544,
      "Ġabout": 545,
      "Ġwith": 546,
      "Haan": 547,
      "der": 548,
      "ega": 549,
      "kh": 550,
      "Ġkha": 551,
      "Ġexp": 552,
      "lo": 553,
      "ĠF": 554,
      "ĠN": 555,
      "ig": 556,
      "Ġthoda": 557,
      "hen": 558,
      "Ġyour": 559,
      "Ġup": 560,
      "ast": 561,
      "Ġcan": 562,
      "ĠY": 563,
      "be": 564,
      "Ġte": 565,
      "king": 566,
      "ein": 567,
      "Ġtra": 568,
      "ari": 569,
      "ana": 570,
      "Ġsho": 571,
      "ĠG": 572,
      "ress": 573,
      "Ġtu": 574,
      "ful": 575,
      "Ġbut": 576,
      "Ġzaroor": 577,
      "ĠE": 578,
      "âĢ": 579,
      "Ġimp": 580,
      "Ġare": 581,
      "Ġkh": 582,
      "Ġpad": 583,
      "jh": 584,
      "Ġ*": 585,
      "ĠJ": 586,
      "Ġro": 587,
      "Ġri": 588,
      "Ġkoi": 589,
      "Ġsama": 590,
      "ard": 591,
      "ies": 592,
      "age": 593,
      "now": 594,
      "ance": 595,
      "ff": 596,
      "Ġgood": 597,
      "Ġdekh": 598,
      "Ġagar": 599,
      "Ġ2": 600,
      "peci": 601,
      "Ġreally": 602,
      "ind": 603,
      "Ġat": 604,
      "za": 605,
      "art": 606,
      "ish": 607,
      "Ġcomp": 608,
      "Ġdon": 609,
      "ĠThat": 610,
      "Ġsamajh": 611,
      "Ġget": 612,
      "enge": 613,
      "..": 614,
      "à¤": 615,
      "Ġad": 616,
      "Ġkit": 617,
      "all": 618,
      "erious": 619,
      "Ġpas": 620,
      "Ġtry": 621,
      "af": 622,
      "Ġhoti": 623,
      "isa": 624,
      "ks": 625,
      "Ġsome": 626,
      "ie": 627,
      "Ġhave": 628,
      "os": 629,
      "Ġout": 630,
      "'m": 631,
      "yega": 632,
      "Ġpasand": 633,
      "yada": 634,
      "Ġsp": 635,
      "ings": 636,
      "Ġright": 637,
      "hone": 638,
      "Ġno": 639,
      "ble": 640,
      "Ġpata": 641,
      "yun": 642,
      "mujhe": 643,
      "Ġghar": 644,
      "Ġche": 645,
      "ill": 646,
      "Ġknow": 647,
      "Ġgo": 648,
      "Ġas": 649,
      "Ġbaat": 650,
      "Ġide": 651,
      "ilm": 652,
      "ong": 653,
      "Ġkaam": 654,
      "Ġinter": 655,
      "Ġmaza": 656,
      "kay": 657,
      "ice": 658,
      "Ġsam": 659,
      "Ġhon": 660,
      "ven": 661,
      "Ġjab": 662,
      "hir": 663,
      "ell": 664,
      "Ġco": 665,
      "riend": 666,
      "Ġmat": 667,
      "eriously": 668,
      "able": 669,
      "ane": 670,
      "Oh": 671,
      "lp": 672,
      "Ġzyada": 673,
      "isi": 674,
      "Ġzaroori": 675,
      "Ġi": 676,
      "ition": 677,
      "Ġalag": 678,
      "Ġpeh": 679,
      "Ġtak": 680,
      "Ġhelp": 681,
      "mes": 682,
      "ily": 683,
      "ach": 684,
      "act": 685,
      "Ġach": 686,
      "ight": 687,
      "Ġbana": 688,
      "ens": 689,
      "Ġbhai": 690,
      "Ġkaro": 691,
      "ap": 692,
      "Ġkyun": 693,
      "Ġbas": 694,
      "ue": 695,
      "ac": 696,
      "hur": 697,
      "Ġpr": 698,
      "Ġman": 699,
      "ty": 700,
      "av": 701,
      "Ġunhe": 702,
      "Ġspeci": 703,
      "Ġres": 704,
      "ĠUn": 705,
      "Ġbohot": 706,
      "Ġhar": 707,
      "Ġhote": 708,
      "very": 709,
      "iya": 710,
      "Ġcl": 711,
      "og": 712,
      "unds": 713,
      "Ġaap": 714,
      "ep": 715,
      "eh": 716,
      "Ġhua": 717,
      "kar": 718,
      "Ġwhen": 719,
      "du": 720,
      "Ġfilm": 721,
      "orm": 722,
      "Ġwal": 723,
      "ĠThe": 724,
      "Ġch": 725,
      "'re": 726,
      "eth": 727,
      "aybe": 728,
      "ayi": 729,
      "aj": 730,
      "ations": 731,
      "Ġfam": 732,
      "Ġkaise": 733,
      "Ġfr": 734,
      "zing": 735,
      "irf": 736,
      "ndi": 737,
      "Ġpre": 738,
      "Ġsup": 739,
      "Ġtumne": 740,
      "hool": 741,
      "Ġokay": 742,
      "ted": 743,
      "Ġthey": 744,
      "Ġrakh": 745,
      "Ġsirf": 746,
      "ĠAur": 747,
      "oh": 748,
      "rey": 749,
      "ting": 750,
      "Ġjaise": 751,
      "bilkul": 752,
      "Ġpra": 753,
      "tions": 754,
      "Ġyaad": 755,
      "kya": 756,
      "Ġidea": 757,
      "mb": 758,
      "ore": 759,
      "Ġper": 760,
      "huru": 761,
      "Ġuse": 762,
      "Ġdin": 763,
      "Ġher": 764,
      "Ġaw": 765,
      "Ġall": 766,
      "ps": 767,
      "Arey": 768,
      "Ġphir": 769,
      "Ġar": 770,
      "Ġshuru": 771,
      "ena": 772,
      "Ġnew": 773,
      "Ġsuna": 774,
      "ts": 775,
      "tiv": 776,
      "ĠIndi": 777,
      "ani": 778,
      "Ġsakta": 779,
      "Ġ20": 780,
      "tic": 781,
      "ĠBut": 782,
      "Ġama": 783,
      "ents": 784,
      "ning": 785,
      "ĠIs": 786,
      "indi": 787,
      "ary": 788,
      "Ġfriend": 789,
      "Ġamazing": 790,
      "ĠV": 791,
      "ĠTu": 792,
      "fin": 793,
      "Ġsahi": 794,
      "ain": 795,
      "ĠO": 796,
      "ace": 797,
      "vel": 798,
      "Ġbata": 799,
      "ang": 800,
      "afi": 801,
      "ays": 802,
      "Ġimport": 803,
      "sh": 804,
      "reat": 805,
      "Ġ19": 806,
      "vie": 807,
      "Ġtr": 808,
      "Ġnot": 809,
      "Ġtumha": 810,
      "de": 811,
      "Ġlife": 812,
      "Ġbest": 813,
      "Ġwork": 814,
      "ould": 815,
      "Ġkarta": 816,
      "itely": 817,
      "Ġsabse": 818,
      "Ġmus": 819,
      "Ġkaafi": 820,
      "Ġaata": 821,
      "Ġsabko": 822,
      "Ġexperi": 823,
      "ene": 824,
      "Ġfamily": 825,
      "ĠTum": 826,
      "ive": 827,
      "cus": 828,
      "Ġkyunki": 829,
      "thing": 830,
      "Ġkisi": 831,
      "finitely": 832,
      "oy": 833,
      "Ġbaare": 834,
      "line": 835,
      "Ġthis": 836,
      "Ġqu": 837,
      "Ġthin": 838,
      "ik": 839,
      "Ġdono": 840,
      "Ġsounds": 841,
      "Ġhapp": 842,
      "ult": 843,
      "Ġunder": 844,
      "Ġop": 845,
      "Ġoff": 846,
      "Ġcre": 847,
      "Ġpehle": 848,
      "That": 849,
      "Ġcho": 850,
      "Ġmaine": 851,
      "Ġimportant": 852,
      "che": 853,
      "Ġreh": 854,
      "Ġkarein": 855,
      "Ġta": 856,
      "ĠHindi": 857,
      "Ġeven": 858,
      "Ġbaar": 859,
      "Ġdis": 860,
      "Ġjis": 861,
      "Ġapp": 862,
      "ther": 863,
      "main": 864,
      "ething": 865,
      "omething": 866,
      "Ġtoo": 867,
      "mo": 868,
      "Ġdid": 869,
      "Ġvi": 870,
      "Ġkitna": 871,
      "ans": 872,
      "Ġsun": 873,
      "Ġhad": 874,
      "Ġchal": 875,
      "Ġif": 876,
      "ali": 877,
      "Ġshe": 878,
      "Ġchi": 879,
      "com": 880,
      "Ġbaad": 881,
      "dition": 882,
      "ute": 883,
      "Ġkarti": 884,
      "Ġda": 885,
      "port": 886,
      "Ġaaj": 887,
      "alth": 888,
      "Ġwhat": 889,
      "erv": 890,
      "Ġkhud": 891,
      "Ġ(": 892,
      "Ġevery": 893,
      "Ġcol": 894,
      "hy": 895,
      "Ġdes": 896,
      "Ġexc": 897,
      "Ġsomething": 898,
      "Ġthou": 899,
      "Ġfun": 900,
      "Ġstr": 901,
      "actly": 902,
      "Ġgayi": 903,
      "ces": 904,
      "fic": 905,
      "Ġitna": 906,
      "Ġdiya": 907,
      "...": 908,
      "Ġmere": 909,
      "so": 910,
      "Ġsm": 911,
      "Ġmad": 912,
      "rit": 913,
      "Ġinterest": 914,
      "Ġfeeling": 915,
      "Ġaisa": 916,
      "Ġweek": 917,
      "stand": 918,
      "ara": 919,
      "Ġunki": 920,
      "Ġchan": 921,
      "Ġfo": 922,
      "fect": 923,
      "ory": 924,
      "ction": 925,
      "Ġtri": 926,
      "ub": 927,
      "Ġkhus": 928,
      "Ġhumare": 929,
      "Ġexperience": 930,
      "Ġspecial": 931,
      "Ġkam": 932,
      "Ġstress": 933,
      "ase": 934,
      "Ġbol": 935,
      "Ġpo": 936,
      "Ġlaga": 937,
      "ook": 938,
      "Ġcomm": 939,
      "âĢĻ": 940,
      "Ġgaye": 941,
      "Ġgam": 942,
      "Ġkal": 943,
      "Ġpur": 944,
      "Ġachha": 945,
      "Ġgu": 946,
      "Ġmar": 947,
      "Ġhealth": 948,
      "tain": 949,
      "xt": 950,
      "cial": 951,
      "Ġcare": 952,
      "Ġjayega": 953,
      "ĠDon": 954,
      "Ġlit": 955,
      "Ġunderstand": 956,
      "Ġpadega": 957,
      "Ġhis": 958,
      "ign": 959,
      "Ar": 960,
      "Ġany": 961,
      "cal": 962,
      "Ġthings": 963,
      "Ġsakti": 964,
      "form": 965,
      "joy": 966,
      "em": 967,
      "Ġmuch": 968,
      "cess": 969,
      "ension": 970,
      "Ġinv": 971,
      "Ġacha": 972,
      "ĠSeriously": 973,
      "tle": 974,
      "Ġsw": 975,
      "Ġaise": 976,
      "elf": 977,
      "als": 978,
      "Ġunke": 979,
      "Ġthem": 980,
      "br": 981,
      "Ġshow": 982,
      "ze": 983,
      "ars": 984,
      "rou": 985,
      "Ġlogon": 986,
      "Ġfir": 987,
      "eet": 988,
      "Ġtar": 989,
      "ating": 990,
      "Ġunka": 991,
      "yad": 992,
      "ft": 993,
      "Ġclass": 994,
      "ĠLi": 995,
      "ical": 996,
      "ĠAnd": 997,
      "Ġhim": 998,
      "Ġjaa": 999,
      "wa": 1000,
      "Ġcont": 1001,
      "Ġtradition": 1002,
      "Ġmom": 1003,
      "Ġdec": 1004,
      "Ġapni": 1005,
      "Ġfrom": 1006,
      "ving": 1007,
      "Ġbilkul": 1008,
      "Arre": 1009,
      "Ġjata": 1010,
      "Ġam": 1011,
      "bs": 1012,
      "Ġmilega": 1013,
      "He": 1014,
      "day": 1015,
      "ked": 1016,
      "Ġins": 1017,
      "ree": 1018,
      "kha": 1019,
      "les": 1020,
      "Ġdiff": 1021,
      "get": 1022,
      "Ġover": 1023,
      "ys": 1024,
      "tive": 1025,
      "je": 1026,
      "Ġbeen": 1027,
      "Ġunhone": 1028,
      "Ġnow": 1029,
      "iss": 1030,
      "era": 1031,
      "mp": 1032,
      "Ġnaya": 1033,
      "Ġinc": 1034,
      "ery": 1035,
      "ric": 1036,
      "Ġkarke": 1037,
      "row": 1038,
      "ket": 1039,
      "Ġfin": 1040,
      "mber": 1041,
      "Ġcar": 1042,
      "Ġonline": 1043,
      "ities": 1044,
      "Ġwant": 1045,
      "Ġpaas": 1046,
      "mesha": 1047,
      "Ġhamesha": 1048,
      "Ġseriously": 1049,
      "self": 1050,
      "kal": 1051,
      "vers": 1052,
      "ĠYeh": 1053,
      "Ġmore": 1054,
      "ner": 1055,
      "ekh": 1056,
      "Ġabhi": 1057,
      "vent": 1058,
      "Ġshare": 1059,
      "Ġthink": 1060,
      "Ġpers": 1061,
      "Ġschool": 1062,
      "Ġtal": 1063,
      "ors": 1064,
      "Ġenjoy": 1065,
      "Ġhona": 1066,
      "ond": 1067,
      "Ġnaam": 1068,
      "Ġtension": 1069,
      "xactly": 1070,
      "Ġparty": 1071,
      "Ġday": 1072,
      "par": 1073,
      "times": 1074,
      "Ġconf": 1075,
      "use": 1076,
      "Ġchho": 1077,
      "Ġmovie": 1078,
      "Ġgot": 1079,
      "Ġtre": 1080,
      "Ġone": 1081,
      "ness": 1082,
      "Ġrec": 1083,
      "Ġlocal": 1084,
      "Ġnaye": 1085,
      "Ġla": 1086,
      "Hey": 1087,
      "sun": 1088,
      "que": 1089,
      "ai": 1090,
      "Ġtumhare": 1091,
      "ated": 1092,
      "Ġcheck": 1093,
      "pt": 1094,
      "ual": 1095,
      "Ġway": 1096,
      "Ġwahan": 1097,
      "Ġthere": 1098,
      "Ġdost": 1099,
      "Ġhow": 1100,
      "ĠMaybe": 1101,
      "Ġback": 1102,
      "Ġwere": 1103,
      "ele": 1104,
      "ĠLike": 1105,
      "here": 1106,
      "Ġuni": 1107,
      "Ġjaata": 1108,
      "Ġteam": 1109,
      "Ġmilta": 1110,
      "Ġaayega": 1111,
      "ran": 1112,
      "gg": 1113,
      "int": 1114,
      "ative": 1115,
      "ĠLekin": 1116,
      "Ġneed": 1117,
      "Ġmaybe": 1118,
      "Ġbus": 1119,
      "Ġbal": 1120,
      "Ġkaun": 1121,
      "low": 1122,
      "'ll": 1123,
      "Ġact": 1124,
      "tra": 1125,
      "Ġbadh": 1126,
      "ually": 1127,
      "Ġkeh": 1128,
      "Ġhumein": 1129,
      "led": 1130,
      "Ġsk": 1131,
      "Ġstart": 1132,
      "ick": 1133,
      "ĠPar": 1134,
      "Ġtab": 1135,
      "Ġà¤": 1136,
      "Bilkul": 1137,
      "elt": 1138,
      "si": 1139,
      "Ġperfect": 1140,
      "Ġart": 1141,
      "ash": 1142,
      "ahul": 1143,
      "ĠâĢ": 1144,
      "Exactly": 1145,
      "arre": 1146,
      "Ye": 1147,
      "Ġby": 1148,
      "Ġbet": 1149,
      "ways": 1150,
      "Ġmusic": 1151,
      "Ġint": 1152,
      "lish": 1153,
      "ited": 1154,
      "Ġbre": 1155,
      "Ġkhe": 1156,
      "Ġtraditional": 1157,
      "Ġtheek": 1158,
      "Mujhe": 1159,
      "gy": 1160,
      "Ġinteresting": 1161,
      "co": 1162,
      "ural": 1163,
      "Ġlittle": 1164,
      "ĠYou": 1165,
      "Ġcomple": 1166,
      "Ġ\"": 1167,
      "Ġapna": 1168,
      "ayenge": 1169,
      "'ve": 1170,
      "Ġes": 1171,
      "00": 1172,
      "Ġbit": 1173,
      "Ġkahan": 1174,
      "Ġgreat": 1175,
      "Ġshayad": 1176,
      "ories": 1177,
      "Ġpol": 1178,
      "Main": 1179,
      "Ġfriends": 1180,
      "Ġcult": 1181,
      "ire": 1182,
      "Ġfocus": 1183,
      "Ġaf": 1184,
      "ĠWoh": 1185,
      "Ġ3": 1186,
      "Ġisse": 1187,
      "Ġaccha": 1188,
      "lax": 1189,
      "ĠIn": 1190,
      "uka": 1191,
      "Ġhear": 1192,
      "ĠRo": 1193,
      "Wow": 1194,
      "Ġsupport": 1195,
      "Ġdiffer": 1196,
      "Ġdefinitely": 1197,
      "Ġhone": 1198,
      "ĠIndia": 1199,
      "ĠHe": 1200,
      "Ġjaana": 1201,
      "Ġfood": 1202,
      "Ġmake": 1203,
      "elebr": 1204,
      "Ġcould": 1205,
      "mer": 1206,
      "Ġsur": 1207,
      "Ġtech": 1208,
      "Ġfelt": 1209,
      "ature": 1210,
      "Ġdil": 1211,
      "ds": 1212,
      "Ġbha": 1213,
      "Ġrelax": 1214,
      "Ġfirst": 1215,
      "urn": 1216,
      "Ġseekh": 1217,
      "hin": 1218,
      "ez": 1219,
      "Ġ-": 1220,
      "Ġkarenge": 1221,
      "duc": 1222,
      "ĠHa": 1223,
      "iv": 1224,
      "lic": 1225,
      "ady": 1226,
      "Ġhas": 1227,
      "Ġchah": 1228,
      "Ġalso": 1229,
      "ĠIndian": 1230,
      "Ġwho": 1231,
      "ĠSab": 1232,
      "bha": 1233,
      "chi": 1234,
      "Ġlot": 1235,
      "Ġfav": 1236,
      "à¥": 1237,
      "Ġunique": 1238,
      "Ġcelebr": 1239,
      "Ġperson": 1240,
      "Ġalways": 1241,
      "adi": 1242,
      "Ġmeri": 1243,
      "Ġsee": 1244,
      "Ġcheez": 1245,
      "ĠAn": 1246,
      "Ġgoing": 1247,
      "Ġkarun": 1248,
      "Ġuske": 1249,
      "lu": 1250,
      "Ġmanage": 1251,
      "Ġroop": 1252,
      "Ġbig": 1253,
      "Ġtot": 1254,
      "Ġdena": 1255,
      "ility": 1256,
      "It": 1257,
      "ĠItna": 1258,
      "ions": 1259,
      "esome": 1260,
      "Ġmauka": 1261,
      "Ġ201": 1262,
      "ĠAgar": 1263,
      "own": 1264,
      "The": 1265,
      "iye": 1266,
      "Ġhui": 1267,
      "hip": 1268,
      "va": 1269,
      "itu": 1270,
      "ĠâĢĵ": 1271,
      "Ġlena": 1272,
      "Ġchill": 1273,
      "ram": 1274,
      "ward": 1275,
      "no": 1276,
      "Ġreal": 1277,
      "ĠBo": 1278,
      "Ġhumari": 1279,
      "Ġsti": 1280,
      "pr": 1281,
      "ople": 1282,
      "Yeah": 1283,
      "aha": 1284,
      "Ġconne": 1285,
      "Ġbetter": 1286,
      "ĠBhar": 1287,
      "pecially": 1288,
      "Ġinvest": 1289,
      "unt": 1290,
      "Ġset": 1291,
      "Ġdekha": 1292,
      "ĠJust": 1293,
      "Ġwhi": 1294,
      "Bhai": 1295,
      "ooking": 1296,
      "Ġplay": 1297,
      "lab": 1298,
      "ding": 1299,
      "ĠNe": 1300,
      "ular": 1301,
      "Ġnight": 1302,
      "Ġcle": 1303,
      "ĠMujhe": 1304,
      "Ġother": 1305,
      "yon": 1306,
      "ject": 1307,
      "Ġtrip": 1308,
      "Ġthought": 1309,
      "ugh": 1310,
      "My": 1311,
      "Ġkhana": 1312,
      "Ġdus": 1313,
      "Ġcareer": 1314,
      "ja": 1315,
      "Ġaaya": 1316,
      "Ġbach": 1317,
      "pping": 1318,
      "Ġsuper": 1319,
      "Ġiss": 1320,
      "Ġval": 1321,
      "Ġkuchh": 1322,
      "Ġlast": 1323,
      "Ġdeta": 1324,
      "Ġjaye": 1325,
      "ills": 1326,
      "Ġlet": 1327,
      "Ġlong": 1328,
      "Ġpyaar": 1329,
      "ĠSt": 1330,
      "wor": 1331,
      "Ġyourself": 1332,
      "man": 1333,
      "Ġnext": 1334,
      "Ġfre": 1335,
      "ina": 1336,
      "Ġjob": 1337,
      "lf": 1338,
      "Ġwill": 1339,
      "ahi": 1340,
      "per": 1341,
      "ee": 1342,
      "comma": 1343,
      "umb": 1344,
      "Ġtrain": 1345,
      "Ġmem": 1346,
      "Ġjag": 1347,
      "Ġpos": 1348,
      "Ġeverything": 1349,
      "Ġespecially": 1350,
      "Ġpeople": 1351,
      "ĠThey": 1352,
      "rand": 1353,
      "Ġsweet": 1354,
      "Ġkaha": 1355,
      "eng": 1356,
      "Ġcomplete": 1357,
      "uk": 1358,
      "yeh": 1359,
      "Ġrahega": 1360,
      "Ġtrend": 1361,
      "its": 1362,
      "olute": 1363,
      "Ġut": 1364,
      "Ġthan": 1365,
      "ng": 1366,
      "ala": 1367,
      "Ġwah": 1368,
      "Ġmadad": 1369,
      "Ġmiss": 1370,
      "Ġwat": 1371,
      "Ġawesome": 1372,
      "Ġrakhna": 1373,
      "Ġsamj": 1374,
      "Ġsocha": 1375,
      "lease": 1376,
      "ments": 1377,
      "olutely": 1378,
      "Ġspecific": 1379,
      "Ġcolle": 1380,
      "Ġpart": 1381,
      "Ġsuch": 1382,
      "Ġdance": 1383,
      "ffe": 1384,
      "Ġunderstandable": 1385,
      "od": 1386,
      "uck": 1387,
      "Ġdidn": 1388,
      "Ġbada": 1389,
      "âĢ¦": 1390,
      "Ġener": 1391,
      "Ġ5": 1392,
      "Ġprac": 1393,
      "Ġfa": 1394,
      "member": 1395,
      "ix": 1396,
      "Ġpass": 1397,
      "ĠWe": 1398,
      "ech": 1399,
      "Ġjaati": 1400,
      "round": 1401,
      "Ġgen": 1402,
      "Ġrel": 1403,
      "ĠWhat": 1404,
      "Ġkhushi": 1405,
      "Ġlove": 1406,
      "mein": 1407,
      "Ġjaate": 1408,
      "Ġmon": 1409,
      "blem": 1410,
      "cy": 1411,
      "Ġag": 1412,
      "Ġhome": 1413,
      "Ġsta": 1414,
      "ety": 1415,
      "ves": 1416,
      "aki": 1417,
      "Ġafter": 1418,
      "yan": 1419,
      "ason": 1420,
      "Ġwar": 1421,
      "Ġbadi": 1422,
      "Ġtotally": 1423,
      "Ġjagah": 1424,
      "Ġstill": 1425,
      "Ġtell": 1426,
      "cip": 1427,
      "Ġvis": 1428,
      "Ġtheir": 1429,
      "Ġproblem": 1430,
      "Ġchange": 1431,
      "Ġcons": 1432,
      "Ġkhush": 1433,
      "hes": 1434,
      "Ġim": 1435,
      "Ġsaal": 1436,
      "ĠSome": 1437,
      "Aw": 1438,
      "arch": 1439,
      "pect": 1440,
      "ĠRahul": 1441,
      "ics": 1442,
      "Ġstre": 1443,
      "vi": 1444,
      "yal": 1445,
      "Ġsocial": 1446,
      "ĠKa": 1447,
      "Ġdire": 1448,
      "Ġsec": 1449,
      "Ġbu": 1450,
      "ĠSo": 1451,
      "Ġkahani": 1452,
      "Ġthough": 1453,
      "Ġhogi": 1454,
      "Ġour": 1455,
      "iness": 1456,
      "egi": 1457,
      "Ġchar": 1458,
      "Ġdekhne": 1459,
      "Ġchall": 1460,
      "Ġenergy": 1461,
      "riya": 1462,
      "Ġste": 1463,
      "Ġjoin": 1464,
      "Ġeas": 1465,
      "ĠEk": 1466,
      "ru": 1467,
      "Ġele": 1468,
      "Ġdikha": 1469,
      "Ġwould": 1470,
      "au": 1471,
      "ĠDe": 1472,
      "Ġbanana": 1473,
      "Ġcour": 1474,
      "ĠUnhone": 1475,
      "Ġweekend": 1476,
      "Ġdown": 1477,
      "ather": 1478,
      "Ġgame": 1479,
      "Ġhand": 1480,
      "Ġdog": 1481,
      "Ġhappen": 1482,
      "Ġstory": 1483,
      "Ġjahan": 1484,
      "Ġsitu": 1485,
      "Ġachi": 1486,
      "ame": 1487,
      "ital": 1488,
      "itive": 1489,
      "Ġvibe": 1490,
      "olog": 1491,
      "arr": 1492,
      "Ġdekhna": 1493,
      "Ġfavor": 1494,
      "Ġsach": 1495,
      "Ġwait": 1496,
      "ustr": 1497,
      "Ġve": 1498,
      "cks": 1499,
      "Ġkhel": 1500,
      "Ġcompan": 1501,
      "abhi": 1502,
      "Ġkis": 1503,
      "Ġsomeone": 1504,
      "ukh": 1505,
      "Ġgi": 1506,
      "hit": 1507,
      "udget": 1508,
      "Ġkiye": 1509,
      "Ġsake": 1510,
      "ues": 1511,
      "table": 1512,
      "kes": 1513,
      "Ġbat": 1514,
      "Ġrom": 1515,
      "Ġdun": 1516,
      "view": 1517,
      "Ġmess": 1518,
      "Ġhard": 1519,
      "Ġphot": 1520,
      "iti": 1521,
      "Ġmila": 1522,
      "amp": 1523,
      "uture": 1524,
      "dia": 1525,
      "Ġdifferent": 1526,
      "Ġwell": 1527,
      "Ġchale": 1528,
      "ĠYe": 1529,
      "ĠWa": 1530,
      "Ġplanning": 1531,
      "Ġfavorite": 1532,
      "cer": 1533,
      "wab": 1534,
      "Ġbreak": 1535,
      "iron": 1536,
      "Ġreg": 1537,
      "dern": 1538,
      "Ġlist": 1539,
      "Ġvery": 1540,
      "set": 1541,
      "Ġrep": 1542,
      "ract": 1543,
      "Ġhonest": 1544,
      "ten": 1545,
      "Ġsi": 1546,
      "for": 1547,
      "Ġskills": 1548,
      "ational": 1549,
      "zed": 1550,
      "sa": 1551,
      "Ġsty": 1552,
      "Ġtough": 1553,
      "Ġthose": 1554,
      "tice": 1555,
      "Ġremember": 1556,
      "Ġdusre": 1557,
      "Ġorg": 1558,
      "ates": 1559,
      "Ġhue": 1560,
      "lore": 1561,
      "Ġcommun": 1562,
      "Ġprom": 1563,
      "Ġfeels": 1564,
      "ĠHave": 1565,
      "Ġjan": 1566,
      "Ġbir": 1567,
      "Ġwale": 1568,
      "Ġfind": 1569,
      "ctive": 1570,
      "rid": 1571,
      "Ġdist": 1572,
      "ĠUs": 1573,
      "Ġcompletely": 1574,
      "Ġperform": 1575,
      "rough": 1576,
      "ake": 1577,
      "estiv": 1578,
      "Ġmilkar": 1579,
      "Ġfuture": 1580,
      "Ġuski": 1581,
      "ĠAb": 1582,
      "mm": 1583,
      "ĠKit": 1584,
      "ĠCha": 1585,
      "Ġmin": 1586,
      "arden": 1587,
      "Ġshopping": 1588,
      "Ġbhool": 1589,
      "ĠDid": 1590,
      "agi": 1591,
      "Ġstud": 1592,
      "ĠRiya": 1593,
      "Ġpri": 1594,
      "Ġthing": 1595,
      "ĠSometimes": 1596,
      "ba": 1597,
      "Ġideas": 1598,
      "Ġbl": 1599,
      "Ġusse": 1600,
      "Ġhigh": 1601,
      "Ġtarah": 1602,
      "Ġlear": 1603,
      "Aww": 1604,
      "ved": 1605,
      "Ġexcited": 1606,
      "Ġmedia": 1607,
      "uld": 1608,
      "viron": 1609,
      "Ġwon": 1610,
      "Ġmind": 1611,
      "Ġwent": 1612,
      "Ġsaf": 1613,
      "dit": 1614,
      "Ġtujhe": 1615,
      "tar": 1616,
      "Ġlevel": 1617,
      "ĠRaj": 1618,
      "bility": 1619,
      "Ġmodern": 1620,
      "Ġmilke": 1621,
      "vironment": 1622,
      "ology": 1623,
      "Ġkeep": 1624,
      "indagi": 1625,
      "Ġjawab": 1626,
      "Ġincre": 1627,
      "jab": 1628,
      "antic": 1629,
      "Ġinto": 1630,
      "oot": 1631,
      "Ġculture": 1632,
      "Ġkarega": 1633,
      "ense": 1634,
      "una": 1635,
      "ug": 1636,
      "Ġserv": 1637,
      "Ġexplore": 1638,
      "Ġ4": 1639,
      "Ġdinner": 1640,
      "Ġind": 1641,
      "Ġdel": 1642,
      "Ġdesign": 1643,
      "wn": 1644,
      "ĠRohan": 1645,
      "Ġjal": 1646,
      "Ġlight": 1647,
      "Ġtaraf": 1648,
      "Ġnik": 1649,
      "Ġenvironment": 1650,
      "ĠTho": 1651,
      "Ġadvent": 1652,
      "Ġgarden": 1653,
      "Ġliya": 1654,
      "Ġyo": 1655,
      "kil": 1656,
      "Ġhappy": 1657,
      "rat": 1658,
      "ination": 1659,
      "Ġstrong": 1660,
      "Ġbudget": 1661,
      "Ġwaq": 1662,
      "Ġprocess": 1663,
      "Ġthrough": 1664,
      "Ġsimp": 1665,
      "Ġorder": 1666,
      "ower": 1667,
      "atein": 1668,
      "Ġasli": 1669,
      "angu": 1670,
      "Ġmush": 1671,
      "Ġchalo": 1672,
      "Ġfrustr": 1673,
      "Ġemo": 1674,
      "Ġmas": 1675,
      "ustom": 1676,
      "ĠMain": 1677,
      "Ġdete": 1678,
      "Ġbalance": 1679,
      "Ġbook": 1680,
      "enti": 1681,
      "Ġaaye": 1682,
      "Ġduniya": 1683,
      "rove": 1684,
      "Ġbina": 1685,
      "ĠHum": 1686,
      "Ġoptions": 1687,
      "Ġshould": 1688,
      "Ġprof": 1689,
      "Ġdri": 1690,
      "Ġtechn": 1691,
      "Ġdoes": 1692,
      "ident": 1693,
      "Ġachhe": 1694,
      "xi": 1695,
      "Ġrak": 1696,
      "Ġmushkil": 1697,
      "Ġold": 1698,
      "Ġproject": 1699,
      "Ġsituation": 1700,
      "ences": 1701,
      "Ġpop": 1702,
      "aaj": 1703,
      "Ġtas": 1704,
      "Ġprodu": 1705,
      "Ġsub": 1706,
      "rap": 1707,
      "Ġkarni": 1708,
      "ball": 1709,
      "Ġmost": 1710,
      "Ġtaaki": 1711,
      "jah": 1712,
      "Ġcall": 1713,
      "Ġthinking": 1714,
      "Ġbeech": 1715,
      "Ġwaqt": 1716,
      "ough": 1717,
      "Ġresp": 1718,
      "udi": 1719,
      "mi": 1720,
      "Ġaati": 1721,
      "Ġkitne": 1722,
      "Ġnews": 1723,
      "Ġret": 1724,
      "tem": 1725,
      "Ġwajah": 1726,
      "cted": 1727,
      "ĠTumha": 1728,
      "rip": 1729,
      "ĠRe": 1730,
      "Ġsafe": 1731,
      "Ġsurpr": 1732,
      "Ġfas": 1733,
      "ervous": 1734,
      "ality": 1735,
      "ativ": 1736,
      "Ġinsp": 1737,
      "Ġbeing": 1738,
      "ling": 1739,
      "Ġbro": 1740,
      "Kya": 1741,
      "Ġadd": 1742,
      "Ġeng": 1743,
      "Ġyear": 1744,
      "Ġromantic": 1745,
      "Ġgrow": 1746,
      "Ġhaan": 1747,
      "Ġmust": 1748,
      "ren": 1749,
      "des": 1750,
      "ystem": 1751,
      "ĠShe": 1752,
      "ctor": 1753,
      "Ġjaane": 1754,
      "Ġbaatein": 1755,
      "ession": 1756,
      "Ġhonestly": 1757,
      "Ġzindagi": 1758,
      "Ġsmall": 1759,
      "ĠBas": 1760,
      "ney": 1761,
      "ope": 1762,
      "Ġgames": 1763,
      "Wah": 1764,
      "Ġanything": 1765,
      "imran": 1766,
      "Ġwala": 1767,
      "Ġkho": 1768,
      "Ġmoment": 1769,
      "Ġscene": 1770,
      "shi": 1771,
      "ron": 1772,
      "Ġmilti": 1773,
      "Ġfestiv": 1774,
      "Ġfol": 1775,
      "ĠDo": 1776,
      "ile": 1777,
      "Ġworry": 1778,
      "ision": 1779,
      "Ġtravel": 1780,
      "Ġhumara": 1781,
      "Ġjisme": 1782,
      "Ġchai": 1783,
      "Ġlangu": 1784,
      "Ġaas": 1785,
      "Ġphone": 1786,
      "Ġgir": 1787,
      "ose": 1788,
      "ices": 1789,
      "Ġhonge": 1790,
      "ici": 1791,
      "Ġend": 1792,
      "ativity": 1793,
      "Ġfl": 1794,
      "urat": 1795,
      "sha": 1796,
      "unch": 1797,
      "Ġgetting": 1798,
      "Ġactiv": 1799,
      "cuss": 1800,
      "igh": 1801,
      "Yeh": 1802,
      "Ġbare": 1803,
      "fi": 1804,
      "rue": 1805,
      "Ġbadal": 1806,
      "Ġnervous": 1807,
      "Ġtrans": 1808,
      "ĠFe": 1809,
      "con": 1810,
      "yein": 1811,
      "Ġmade": 1812,
      "Ġimprove": 1813,
      "Ġcat": 1814,
      "oi": 1815,
      "Ġjaan": 1816,
      "ently": 1817,
      "Ġthen": 1818,
      "Ġbanaya": 1819,
      "ull": 1820,
      "Ġsan": 1821,
      "rol": 1822,
      "Ġcomb": 1823,
      "pan": 1824,
      "Ġtake": 1825,
      "dh": 1826,
      "Ġchala": 1827,
      "Ġpres": 1828,
      "Ġaapko": 1829,
      "Ġbeach": 1830,
      "Ġent": 1831,
      "med": 1832,
      "Haha": 1833,
      "Ġsure": 1834,
      "Ġoption": 1835,
      "Ġready": 1836,
      "ale": 1837,
      "isk": 1838,
      "Ġcustom": 1839,
      "Ġsaare": 1840,
      "tam": 1841,
      "Ġtw": 1842,
      "Ġuska": 1843,
      "Ġcra": 1844,
      "Ġeff": 1845,
      "Ġspace": 1846,
      "Ġ200": 1847,
      "ants": 1848,
      "Ġpositive": 1849,
      "Ġshi": 1850,
      "Ġter": 1851,
      "ĠBharat": 1852,
      "wow": 1853,
      "uri": 1854,
      "Ġmemories": 1855,
      "Ġactually": 1856,
      "Ġ18": 1857,
      "Ġsmart": 1858,
      "Ġref": 1859,
      "Ġrespon": 1860,
      "fully": 1861,
      "Ġ=": 1862,
      "Ġbant": 1863,
      "Ġhist": 1864,
      "ny": 1865,
      "agar": 1866,
      "Ġsad": 1867,
      "Ġsometimes": 1868,
      "otally": 1869,
      "Ġsor": 1870,
      "ned": 1871,
      "Ġkab": 1872,
      "ried": 1873,
      "Ġdep": 1874,
      "Ġmakes": 1875,
      "ush": 1876,
      "Ġti": 1877,
      "Ġeasy": 1878,
      "Ġnat": 1879,
      "Ġeduc": 1880,
      "hion": 1881,
      "ĠSha": 1882,
      "Ġfresh": 1883,
      "Ġchoti": 1884,
      "ffee": 1885,
      "Ġdra": 1886,
      "Ġjee": 1887,
      "ures": 1888,
      "Ġmoments": 1889,
      "Ġbusiness": 1890,
      "ying": 1891,
      "Ġvib": 1892,
      "aree": 1893,
      "ester": 1894,
      "fore": 1895,
      "Ġwali": 1896,
      "Ġpress": 1897,
      "Ġpain": 1898,
      "Ġcelebrate": 1899,
      "Ġspend": 1900,
      "Ġdoing": 1901,
      "Ġcompany": 1902,
      "oos": 1903,
      "ĠKuch": 1904,
      "aya": 1905,
      "Ġdiscuss": 1906,
      "res": 1907,
      "Is": 1908,
      "Ġhumne": 1909,
      "Ġrole": 1910,
      "Ġtop": 1911,
      "Ġbanane": 1912,
      "Ġcommon": 1913,
      "Ġmonth": 1914,
      "ĠGo": 1915,
      "Ġsystem": 1916,
      "Ġdoor": 1917,
      "yi": 1918,
      "Ġnikal": 1919,
      "bsolutely": 1920,
      "Ġsus": 1921,
      "Ġpic": 1922,
      "ĠBohot": 1923,
      "Ġoffice": 1924,
      "Ġmei": 1925,
      "Ġni": 1926,
      "Ġyears": 1927,
      "Ġgrou": 1928,
      "Ġkitni": 1929,
      "Ġmeet": 1930,
      "Ġlook": 1931,
      "Ġham": 1932,
      "velop": 1933,
      "Ġthese": 1934,
      "Ġincredi": 1935,
      "ĠSimran": 1936,
      "Absolutely": 1937,
      "Ġimpact": 1938,
      "Ġtumhara": 1939,
      "Ġboo": 1940,
      "time": 1941,
      "ĠOr": 1942,
      "Ġbatao": 1943,
      "Ġmilte": 1944,
      "Ġmera": 1945,
      "Ġhealthy": 1946,
      "Ġcollege": 1947,
      "idence": 1948,
      "Ġaround": 1949,
      "Ġcal": 1950,
      "iting": 1951,
      "hanks": 1952,
      "Ġgener": 1953,
      "Ġcreativity": 1954,
      "Ġdig": 1955,
      "Ġspe": 1956,
      "Ġrisk": 1957,
      "Ġnorm": 1958,
      "Ġfinan": 1959,
      "Ġdar": 1960,
      "ming": 1961,
      "liye": 1962,
      "Ġdays": 1963,
      "ude": 1964,
      "Ġworks": 1965,
      "eries": 1966,
      "Ek": 1967,
      "tum": 1968,
      "arey": 1969,
      "oring": 1970,
      "Ġthodi": 1971,
      "ether": 1972,
      "Ġjaldi": 1973,
      "Ġfit": 1974,
      "ĠAl": 1975,
      "dy": 1976,
      "Ġkhatam": 1977,
      "Ġunse": 1978,
      "cho": 1979,
      "une": 1980,
      "Ġbadiya": 1981,
      "Ġitne": 1982,
      "uring": 1983,
      "Ġdaal": 1984,
      "hum": 1985,
      "Ġcharact": 1986,
      "Ġsugg": 1987,
      "Ġadv": 1988,
      "Ġcompet": 1989,
      "Ġmotiv": 1990,
      "Ġlete": 1991,
      "Ġinf": 1992,
      "Ġtechnology": 1993,
      "Ġpressure": 1994,
      "search": 1995,
      "ically": 1996,
      "erve": 1997,
      "Ġnatural": 1998,
      "Ġdata": 1999,
      "Ġwin": 2000,
      "Ġkai": 2001,
      "Ġitni": 2002,
      "cle": 2003,
      "ĠNo": 2004,
      "auti": 2005,
      "Ġkaisa": 2006,
      "ca": 2007,
      "lad": 2008,
      "hya": 2009,
      "Ġsimple": 2010,
      "Ġgra": 2011,
      "Ġeveryone": 2012,
      "Ġwarna": 2013,
      "reen": 2014,
      "Ġfrustrating": 2015,
      "Ġhouse": 2016,
      "ared": 2017,
      "Ġfound": 2018,
      "Ġaut": 2019,
      "ung": 2020,
      "Ġbusy": 2021,
      "Ġpersonal": 2022,
      "Ġimag": 2023,
      "Ġfollow": 2024,
      "Ġresearch": 2025,
      "Ġsochti": 2026,
      "inda": 2027,
      "Ġinst": 2028,
      "Ġcool": 2029,
      "Ġtalk": 2030,
      "Ġvide": 2031,
      "Ġmarket": 2032,
      "Ġmatlab": 2033,
      "oud": 2034,
      "ord": 2035,
      "Ġev": 2036,
      "Ġnature": 2037,
      "band": 2038,
      "Ġcheezein": 2039,
      "ĠAI": 2040,
      "Ġseason": 2041,
      "hik": 2042,
      "ĠUnka": 2043,
      "Ġraat": 2044,
      "Ġusko": 2045,
      "els": 2046,
      "Ġplace": 2047,
      "Ġlearning": 2048,
      "astic": 2049,
      "Ġtrust": 2050,
      "ortun": 2051,
      "ĠMo": 2052,
      "yak": 2053,
      "ĠMa": 2054,
      "Ġpay": 2055,
      "friend": 2056,
      "ĠAr": 2057,
      "by": 2058,
      "Ġcontrol": 2059,
      "hak": 2060,
      "Ġel": 2061,
      "versity": 2062,
      "Ġhiss": 2063,
      "Ġtouch": 2064,
      "eve": 2065,
      "iz": 2066,
      "Ġleg": 2067,
      "Ġfashion": 2068,
      "Ġlad": 2069,
      "Ġorgani": 2070,
      "Ġlagega": 2071,
      "tty": 2072,
      "Ġnormal": 2073,
      "Ġsame": 2074,
      "light": 2075,
      "Ġpet": 2076,
      "Ġreli": 2077,
      "Ġclean": 2078,
      "Okay": 2079,
      "Ġclo": 2080,
      "Ġsath": 2081,
      "Ġstru": 2082,
      "Ġchalleng": 2083,
      "hyan": 2084,
      "Ġdevelop": 2085,
      "ency": 2086,
      "Ġcoffee": 2087,
      "Ġsol": 2088,
      "ication": 2089,
      "Ġpromo": 2090,
      "',": 2091,
      "Ġbanate": 2092,
      "itement": 2093,
      "Ġpadta": 2094,
      "ines": 2095,
      "Ġbefore": 2096,
      "Ġment": 2097,
      "ura": 2098,
      "Ġcity": 2099,
      "Ġsorry": 2100,
      "Ġevent": 2101,
      "Ġopp": 2102,
      "Ġlooking": 2103,
      "ters": 2104,
      "Ġself": 2105,
      "ĠEng": 2106,
      "ering": 2107,
      "Totally": 2108,
      "Ġadventure": 2109,
      "Ġkey": 2110,
      "Ġbel": 2111,
      "Ġform": 2112,
      "Ġkind": 2113,
      "mil": 2114,
      "ssi": 2115,
      "Ġpractice": 2116,
      "Ġhere": 2117,
      "ĠSa": 2118,
      "Ġproper": 2119,
      "Ġworld": 2120,
      "ream": 2121,
      "Ġpower": 2122,
      "Ġdirect": 2123,
      "definitely": 2124,
      "Ġprog": 2125,
      "Ġconcer": 2126,
      "her": 2127,
      "inglish": 2128,
      "Ġbuil": 2129,
      "hoom": 2130,
      "ĠCom": 2131,
      "Ġshows": 2132,
      "Ġwahaan": 2133,
      "ublic": 2134,
      "nov": 2135,
      "Ġaate": 2136,
      "Ġscary": 2137,
      "ym": 2138,
      "True": 2139,
      "Ġdhyan": 2140,
      "Ġdigital": 2141,
      "De": 2142,
      "way": 2143,
      "Ġpot": 2144,
      "Ġboth": 2145,
      "Ġmight": 2146,
      "ĠHinglish": 2147,
      "Ġsuc": 2148,
      "old": 2149,
      "ahut": 2150,
      "Ġexcitement": 2151,
      "Ġemb": 2152,
      "ĠKoi": 2153,
      "Ġcap": 2154,
      "Ġparti": 2155,
      "Ġfar": 2156,
      "bly": 2157,
      "Ġheart": 2158,
      "'d": 2159,
      "Ġsamjha": 2160,
      "Ġpak": 2161,
      "Ġpretty": 2162,
      "taur": 2163,
      "Ġbadha": 2164,
      "Ġsurprise": 2165,
      "Ġbra": 2166,
      "Ġelse": 2167,
      "Ġdoesn": 2168,
      "Ġown": 2169,
      "Ġ10": 2170,
      "hon": 2171,
      "Ġclear": 2172,
      "Hmm": 2173,
      "Ġeducation": 2174,
      "Ġhissa": 2175,
      "Ġseekhne": 2176,
      "kin": 2177,
      "ctions": 2178,
      "amil": 2179,
      "Ġrelations": 2180,
      "Ġmove": 2181,
      "Ġpat": 2182,
      "Ġfestival": 2183,
      "Ġass": 2184,
      "Ġkhayal": 2185,
      "Ġ6": 2186,
      "Ġwhile": 2187,
      "lain": 2188,
      "Ġchahti": 2189,
      "ĠLe": 2190,
      "Ġexactly": 2191,
      "Ġactivities": 2192,
      "Ġbeauti": 2193,
      "cked": 2194,
      "Ġsong": 2195,
      "Ġhelpful": 2196,
      "20": 2197,
      "Ġrehna": 2198,
      "Ġnumb": 2199,
      "ita": 2200,
      "wood": 2201,
      "Ġcreate": 2202,
      "Ġpras": 2203,
      "Ġluck": 2204,
      "Ġstar": 2205,
      "ade": 2206,
      "Ġvac": 2207,
      "Ġacc": 2208,
      "Ġput": 2209,
      "Ġmet": 2210,
      "Ġtaste": 2211,
      "Ġsamay": 2212,
      "Ġfull": 2213,
      "Ġtrying": 2214,
      "Ġshamil": 2215,
      "Ġcreative": 2216,
      "Ġchhoti": 2217,
      "Ġnir": 2218,
      "bo": 2219,
      "ross": 2220,
      "Ġcompetition": 2221,
      "Ġiska": 2222,
      "hein": 2223,
      "Ġpeace": 2224,
      "ĠChi": 2225,
      "Ġdate": 2226,
      "Ġtoday": 2227,
      "Ġvo": 2228,
      "hed": 2229,
      "Ġjour": 2230,
      "ber": 2231,
      "work": 2232,
      "Ġtips": 2233,
      "Ġpadh": 2234,
      "ges": 2235,
      "Ġchhod": 2236,
      "ump": 2237,
      "Ġkhaas": 2238,
      "Ġrun": 2239,
      "Ġstyle": 2240,
      "wali": 2241,
      "Ġcultural": 2242,
      "Ġconfidence": 2243,
      "ef": 2244,
      "Ġsochna": 2245,
      "ĠZ": 2246,
      "irt": 2247,
      "Ġfi": 2248,
      "In": 2249,
      "ummer": 2250,
      "Ġkharid": 2251,
      "Ġfinancial": 2252,
      "shish": 2253,
      "Ġchild": 2254,
      "Ġrestaur": 2255,
      "Ġsamajhna": 2256,
      "Ġisliye": 2257,
      "Ġlene": 2258,
      "ĠPl": 2259,
      "Ġhope": 2260,
      "Ġdaur": 2261,
      "yed": 2262,
      "Ġmeh": 2263,
      "ama": 2264,
      "Ġsuccess": 2265,
      "Ġlek": 2266,
      "Ġkhi": 2267,
      "ia": 2268,
      "Ġtere": 2269,
      "Ġstore": 2270,
      "Ġexam": 2271,
      "Ġiske": 2272,
      "ksha": 2273,
      "Ġgar": 2274,
      "ils": 2275,
      "Ġjaaye": 2276,
      "Ġmilne": 2277,
      "Ġarea": 2278,
      "Ġresponsi": 2279,
      "Ġkoshish": 2280,
      "athi": 2281,
      "Par": 2282,
      "Ġteach": 2283,
      "land": 2284,
      "Ġpah": 2285,
      "Ġmaking": 2286,
      "Ġaage": 2287,
      "rab": 2288,
      "Ġscared": 2289,
      "zy": 2290,
      "Ġlate": 2291,
      "Ġlanguage": 2292,
      "Ġwater": 2293,
      "tim": 2294,
      "Ġmix": 2295,
      "gain": 2296,
      "ĠBe": 2297,
      "Ġshaadi": 2298,
      "Ġbeautiful": 2299,
      "Ġpopular": 2300,
      "Ġtest": 2301,
      "ĠCol": 2302,
      "Ġserious": 2303,
      "Ġlead": 2304,
      "Ġjisse": 2305,
      "Ġbirth": 2306,
      "Ġworried": 2307,
      "Ġjourney": 2308,
      "Ġrehta": 2309,
      "Ġbene": 2310,
      "Ġmood": 2311,
      "ĠFilm": 2312,
      "Ġvibes": 2313,
      "Ġservice": 2314,
      "Ġwhole": 2315,
      "Ġbr": 2316,
      "ists": 2317,
      "Ġbond": 2318,
      "ons": 2319,
      "Ġaway": 2320,
      "lywood": 2321,
      "Ġplans": 2322,
      "Ġsal": 2323,
      "Ġband": 2324,
      "Ġemp": 2325,
      "Ġcommunity": 2326,
      "Ġclassic": 2327,
      "Ġjayegi": 2328,
      "ĠKitna": 2329,
      "Ġdecor": 2330,
      "right": 2331,
      "tern": 2332,
      "Ġmahat": 2333,
      "Ġstreet": 2334,
      "Ġeffort": 2335,
      "Ġcur": 2336,
      "Ġbade": 2337,
      "ink": 2338,
      "Ġkinda": 2339,
      "oney": 2340,
      "Ġgroup": 2341,
      "Ġlik": 2342,
      "Ġtried": 2343,
      "Ġgrand": 2344,
      "Ġopportun": 2345,
      "Ġdeli": 2346,
      "we": 2347,
      "Ġincredibly": 2348,
      "ukhya": 2349,
      "vid": 2350,
      "Ġmann": 2351,
      "Ġprofession": 2352,
      "Ġair": 2353,
      "Ġmatch": 2354,
      "Ġquality": 2355,
      "fortable": 2356,
      "ple": 2357,
      "ðŁ": 2358,
      "urs": 2359,
      "Ġachieve": 2360,
      "Ġear": 2361,
      "Ġbelie": 2362,
      "Ġsakein": 2363,
      "uff": 2364,
      "rib": 2365,
      "Ġtog": 2366,
      "Ġwhich": 2367,
      "Ġtogether": 2368,
      "Ġhappens": 2369,
      "Ġmazaa": 2370,
      "Un": 2371,
      "Ġproduct": 2372,
      "Ġexpect": 2373,
      "Ġpaan": 2374,
      "ledge": 2375,
      "Ġshauk": 2376,
      "vies": 2377,
      "Ġsaw": 2378,
      "mit": 2379,
      "Ġpractic": 2380,
      "Ġfast": 2381,
      "ĠðŁ": 2382,
      "kari": 2383,
      "min": 2384,
      "Ġopen": 2385,
      "estions": 2386,
      "Ġbar": 2387,
      "tional": 2388,
      "Ġfree": 2389,
      "ready": 2390,
      "Ġmile": 2391,
      "Ġkare": 2392,
      "Ġsna": 2393,
      "ĠHope": 2394,
      "Ġyoga": 2395,
      "Ġbataiye": 2396,
      "Ġbhar": 2397,
      "Ġstation": 2398,
      "Ġdekhte": 2399,
      "à¤¾": 2400,
      "care": 2401,
      "ism": 2402,
      "Ġdw": 2403,
      "Ġsay": 2404,
      "Ġtraining": 2405,
      "pur": 2406,
      "Ġty": 2407,
      "Ġrelease": 2408,
      "Ġits": 2409,
      "cking": 2410,
      "Ġcourse": 2411,
      "Ġagain": 2412,
      "Ġwhere": 2413,
      "hal": 2414,
      "ĠThoda": 2415,
      "Ġreturn": 2416,
      "Ġinvestment": 2417,
      "Ġimagine": 2418,
      "Ġmilegi": 2419,
      "usion": 2420,
      "Ġappro": 2421,
      "Ġbrand": 2422,
      "Ġmean": 2423,
      "Ġnice": 2424,
      "Ġimpress": 2425,
      "Ġraj": 2426,
      "Ġdeti": 2427,
      "Ġjin": 2428,
      "ĠHow": 2429,
      "Ġalready": 2430,
      "Ġcelebration": 2431,
      "Ġnet": 2432,
      "fits": 2433,
      "Ġbola": 2434,
      "ighb": 2435,
      "Ġconnect": 2436,
      "ungi": 2437,
      "Ġprepar": 2438,
      "sti": 2439,
      "Ġincl": 2440,
      "ater": 2441,
      "Bas": 2442,
      "Ġstories": 2443,
      "Ġsabhi": 2444,
      "Ġ199": 2445,
      "Ġgive": 2446,
      "ĠTumhe": 2447,
      "his": 2448,
      "lekin": 2449,
      "Ġdiye": 2450,
      "Ġwahi": 2451,
      "Ġbeat": 2452,
      "Ġupset": 2453,
      "Ġbalki": 2454,
      "ages": 2455,
      "Ġexciting": 2456,
      "pa": 2457,
      "Ġzaroorat": 2458,
      "Ġresour": 2459,
      "Ġinte": 2460,
      "Ġmovies": 2461,
      "Ġbirthday": 2462,
      "ĠUnki": 2463,
      "Ġpati": 2464,
      "Ġsustain": 2465,
      "Ġanxi": 2466,
      "ĠWhi": 2467,
      "cept": 2468,
      "ĠJab": 2469,
      "eld": 2470,
      "Ġusne": 2471,
      "uty": 2472,
      "Ġliter": 2473,
      "Rahul": 2474,
      "ĠSc": 2475,
      "Ġdeal": 2476,
      "Ġcount": 2477,
      "?!": 2478,
      "Ġwit": 2479,
      "Ġneighb": 2480,
      "Ġparents": 2481,
      "Ġ8": 2482,
      "Ġkhane": 2483,
      "Ġcustomer": 2484,
      "ĠKe": 2485,
      "Ġelect": 2486,
      "ollywood": 2487,
      "Ġiniti": 2488,
      "Ġhit": 2489,
      "Ġproduc": 2490,
      "Ġrakhte": 2491,
      "Ġconnection": 2492,
      "Ġwonder": 2493,
      "Ġstep": 2494,
      "Ġrestaurant": 2495,
      "Ġseries": 2496,
      "hout": 2497,
      "Ġperformance": 2498,
      "Ġhappened": 2499,
      "Ġextra": 2500,
      "Ġjeet": 2501,
      "Ġpehli": 2502,
      "ider": 2503,
      "ĠPriya": 2504,
      "Ġthank": 2505,
      "Ġinterview": 2506,
      "Ġmany": 2507,
      "Ġachhi": 2508,
      "eling": 2509,
      "ught": 2510,
      "ague": 2511,
      "Ġfilms": 2512,
      "Ġvalue": 2513,
      "Ġtour": 2514,
      "Ġwatch": 2515,
      "hood": 2516,
      "Ġrecently": 2517,
      "Ġused": 2518,
      "ograp": 2519,
      "Ġzarurat": 2520,
      "cture": 2521,
      "Ġmoney": 2522,
      "Ġaane": 2523,
      "Ġfoot": 2524,
      "ĠNew": 2525,
      "Ġdosti": 2526,
      "reci": 2527,
      "Ġgoals": 2528,
      "Ġjaake": 2529,
      "Ġside": 2530,
      "Ġkids": 2531,
      "Ġ7": 2532,
      "Ġexper": 2533,
      "Ġtreat": 2534,
      "Ġgym": 2535,
      "Ġinform": 2536,
      "ulations": 2537,
      "vern": 2538,
      "Ġrehte": 2539,
      "Ġissue": 2540,
      "Ġgift": 2541,
      "Ġbeh": 2542,
      "Ġrang": 2543,
      "Ġfeelings": 2544,
      "ĠWaise": 2545,
      "Ġcombination": 2546,
      "to": 2547,
      "Ġroom": 2548,
      "Ġcooking": 2549,
      "Ġunko": 2550,
      "Ġhead": 2551,
      "Ġmarke": 2552,
      "sw": 2553,
      "Ġissues": 2554,
      "Ġpoo": 2555,
      "Ġsaid": 2556,
      "Ġdekho": 2557,
      "Ġinnov": 2558,
      "ĠAll": 2559,
      "fort": 2560,
      "Ġquick": 2561,
      "Ġresources": 2562,
      "ument": 2563,
      "Ġdho": 2564,
      "cause": 2565,
      "ems": 2566,
      "ced": 2567,
      "ĠTell": 2568,
      "Sun": 2569,
      "van": 2570,
      "vap": 2571,
      "Ġfamous": 2572,
      "Ġchalega": 2573,
      "Ġmukhya": 2574,
      "back": 2575,
      "Ġmessed": 2576,
      "Ġduring": 2577,
      "Ġexperiences": 2578,
      "Ġbul": 2579,
      "az": 2580,
      "Ġgrowth": 2581,
      "Ġroad": 2582,
      "Ġhistory": 2583,
      "lution": 2584,
      "anic": 2585,
      "Ġproud": 2586,
      "ĠAny": 2587,
      "ĠPra": 2588,
      "Ġtimes": 2589,
      "ada": 2590,
      "solutely": 2591,
      "Ġann": 2592,
      "Ġappreci": 2593,
      "friendly": 2594,
      "eness": 2595,
      "Ġworksho": 2596,
      "Ġembarr": 2597,
      "Ġhaving": 2598,
      "Definitely": 2599,
      "ricket": 2600,
      "Ġpublic": 2601,
      "Ġsci": 2602,
      "ial": 2603,
      "ton": 2604,
      "ĠBhai": 2605,
      "ger": 2606,
      "Ġkhar": 2607,
      "meric": 2608,
      "Ġsport": 2609,
      "Ġbahar": 2610,
      "ĠKrip": 2611,
      "'.": 2612,
      "Ġbi": 2613,
      "Ġembarrass": 2614,
      "action": 2615,
      "irtual": 2616,
      "yunki": 2617,
      "Ġpossi": 2618,
      "Ġkehna": 2619,
      "Ġmasti": 2620,
      "Ġplants": 2621,
      "ances": 2622,
      "Ġpoint": 2623,
      "Ġdeep": 2624,
      "ĠKabhi": 2625,
      "Ġclasses": 2626,
      "ertain": 2627,
      "Ġwanted": 2628,
      "Ġplease": 2629,
      "Ġhandle": 2630,
      "aab": 2631,
      "à¥ĩ": 2632,
      "hys": 2633,
      "atiya": 2634,
      "auty": 2635,
      "Ġinspire": 2636,
      "fy": 2637,
      "Ġvacation": 2638,
      "ĠFir": 2639,
      "ries": 2640,
      "Ġfew": 2641,
      "Ohh": 2642,
      "vings": 2643,
      "red": 2644,
      "ĠCo": 2645,
      "ĠHar": 2646,
      "ĠLet": 2647,
      "Ġchalta": 2648,
      "Ġtumhari": 2649,
      "Ġindust": 2650,
      "Ġbecause": 2651,
      "Ġwasn": 2652,
      "ffic": 2653,
      "Ġstressful": 2654,
      "Ġonly": 2655,
      "less": 2656,
      "Ġreview": 2657,
      "Ġrough": 2658,
      "Ġdrama": 2659,
      "Ġsto": 2660,
      "Ġdik": 2661,
      "ĠPeh": 2662,
      "Ġmod": 2663,
      "Ġrout": 2664,
      "ĠYa": 2665,
      "Ġdwara": 2666,
      "suna": 2667,
      "Ġtool": 2668,
      "Ġpurani": 2669,
      "Ġbeauty": 2670,
      "Ġdein": 2671,
      "ĠSe": 2672,
      "Ġsupp": 2673,
      "udd": 2674,
      "Ġstate": 2675,
      "Ġwrit": 2676,
      "Ġdiffic": 2677,
      "ential": 2678,
      "Ġtheme": 2679,
      "Ġvari": 2680,
      "Ġlikh": 2681,
      "Ġquite": 2682,
      "Ġcost": 2683,
      "Ġoffer": 2684,
      "Ġsche": 2685,
      "Ġphotos": 2686,
      "Ġlive": 2687,
      "ins": 2688,
      "ĠðŁĺ": 2689,
      "ĠEx": 2690,
      "Ġtari": 2691,
      "tery": 2692,
      "Ġded": 2693,
      "Ġface": 2694,
      "Ġdecision": 2695,
      "Ġvideo": 2696,
      "hr": 2697,
      "she": 2698,
      "Ġchallenge": 2699,
      "Ġlagti": 2700,
      "Ġtook": 2701,
      "Ġjise": 2702,
      "Ġmast": 2703,
      "Ġfinally": 2704,
      "aking": 2705,
      "Ġdream": 2706,
      "henge": 2707,
      "Ġfitness": 2708,
      "Ġprogram": 2709,
      "ĠEn": 2710,
      "Ġcomfort": 2711,
      "Ġtalking": 2712,
      "Ġnumber": 2713,
      "ĠDi": 2714,
      "Ġchoose": 2715,
      "erc": 2716,
      "esh": 2717,
      "room": 2718,
      "Ġread": 2719,
      "Ġdauran": 2720,
      "Ġfant": 2721,
      "rt": 2722,
      "ogi": 2723,
      "Ġmor": 2724,
      "Ġmaj": 2725,
      "Ġpark": 2726,
      "Ġdisa": 2727,
      "Ġmaintain": 2728,
      "my": 2729,
      "fts": 2730,
      "oli": 2731,
      "Ġplat": 2732,
      "most": 2733,
      "ĠGoa": 2734,
      "Ġnever": 2735,
      "lav": 2736,
      "Ġlagte": 2737,
      "Ġwaise": 2738,
      "Ġlisten": 2739,
      "rop": 2740,
      "ĠItni": 2741,
      "mar": 2742,
      "Ġlekar": 2743,
      "Ġjayenge": 2744,
      "ĠCong": 2745,
      "Ġchance": 2746,
      "cing": 2747,
      "Ġstrugg": 2748,
      "ĠPhir": 2749,
      "Ġ198": 2750,
      "pne": 2751,
      "Ġaad": 2752,
      "Ġmental": 2753,
      "ĠMy": 2754,
      "Ġparticip": 2755,
      "Ġca": 2756,
      "ĠWor": 2757,
      "aran": 2758,
      "Ġdene": 2759,
      "Ġwaste": 2760,
      "ife": 2761,
      "ĠIska": 2762,
      "Ġisme": 2763,
      "comm": 2764,
      "Ġsustainable": 2765,
      "jiye": 2766,
      "ika": 2767,
      "hel": 2768,
      "Ġadhik": 2769,
      "Ġtemp": 2770,
      "Ġnayi": 2771,
      "Ġprofessional": 2772,
      "Ġekd": 2773,
      "Ġmag": 2774,
      "Ġbanta": 2775,
      "pl": 2776,
      "Ġdikh": 2777,
      "rill": 2778,
      "ĠTumhare": 2779,
      "urt": 2780,
      "Ġcamp": 2781,
      "Ġloo": 2782,
      "Ġdecide": 2783,
      "Ġheard": 2784,
      "Ġfay": 2785,
      "life": 2786,
      "Ġbody": 2787,
      "air": 2788,
      "Ġexplain": 2789,
      "Ġwithout": 2790,
      "Ġpolit": 2791,
      "war": 2792,
      "Ġhisaab": 2793,
      "Ġplatform": 2794,
      "Ġleft": 2795,
      "ĠAmeric": 2796,
      "ince": 2797,
      "Ġkaru": 2798,
      "Ġmedit": 2799,
      "urity": 2800,
      "ĠMar": 2801,
      "tab": 2802,
      "ffective": 2803,
      "Ġbac": 2804,
      "19": 2805,
      "Ġmanagement": 2806,
      "Ġdishes": 2807,
      "Ġmahatvap": 2808,
      "Ġdelivery": 2809,
      "bb": 2810,
      "Ġbura": 2811,
      "Ġbelieve": 2812,
      "ĠEvery": 2813,
      "Ġsik": 2814,
      "istic": 2815,
      "ĠDel": 2816,
      "Ġboring": 2817,
      "Ġteen": 2818,
      "Ġfail": 2819,
      "irit": 2820,
      "come": 2821,
      "Ġsamajhne": 2822,
      "Ġcome": 2823,
      "yani": 2824,
      "Ġconvers": 2825,
      "outh": 2826,
      "Ġcontent": 2827,
      "Ġinspir": 2828,
      "Ġblo": 2829,
      "Ġcard": 2830,
      "Ġsig": 2831,
      "ĠThanks": 2832,
      "chan": 2833,
      "Ġbooks": 2834,
      "Ġstuff": 2835,
      "ret": 2836,
      "Ġboss": 2837,
      "Ġdifficult": 2838,
      "fit": 2839,
      "Ġatt": 2840,
      "Ġtabhi": 2841,
      "Ġacchi": 2842,
      "Ġ9": 2843,
      "ĠSing": 2844,
      "Ġtrack": 2845,
      "ĠEnglish": 2846,
      "ank": 2847,
      "Ġgather": 2848,
      "Ġreason": 2849,
      "ĠVe": 2850,
      "Ġdaily": 2851,
      "ĠKeep": 2852,
      "Ġemotions": 2853,
      "Ġkharab": 2854,
      "Ġsabki": 2855,
      "Ġcharacter": 2856,
      "Ġupd": 2857,
      "ĠBharatiya": 2858,
      "Ġaayi": 2859,
      "Ġfig": 2860,
      "Ġtakes": 2861,
      "Ġpresent": 2862,
      "Ġsaari": 2863,
      "Ġchallenges": 2864,
      "Ġkama": 2865,
      "ida": 2866,
      "ĠPro": 2867,
      "ĠBollywood": 2868,
      "ĠJa": 2869,
      "Ġsunne": 2870,
      "Ġvirtual": 2871,
      "Ġrahen": 2872,
      "Ġbonding": 2873,
      "ĠUni": 2874,
      "Ġcomfortable": 2875,
      "ppo": 2876,
      "Ġwonderful": 2877,
      "hap": 2878,
      "ĠWahan": 2879,
      "ĠUnke": 2880,
      "Sahi": 2881,
      "pped": 2882,
      "Ġfunny": 2883,
      "ury": 2884,
      "lect": 2885,
      "untain": 2886,
      "Ġsign": 2887,
      "geet": 2888,
      "ĠMan": 2889,
      "ws": 2890,
      "Ġje": 2891,
      "Ġintern": 2892,
      "Ġsambha": 2893,
      "Ġcute": 2894,
      "Ġemotional": 2895,
      "kabhi": 2896,
      "Ġmeditation": 2897,
      "door": 2898,
      "),": 2899,
      "ok": 2900,
      "Ġjana": 2901,
      "Ġlif": 2902,
      "Ġline": 2903,
      "Ġpaise": 2904,
      "Ġpaani": 2905,
      "Ġeffective": 2906,
      "ratulations": 2907,
      "ĠKripya": 2908,
      "Ġdoos": 2909,
      "Ġprasid": 2910,
      "Ġknowledge": 2911,
      "ese": 2912,
      "ujh": 2913,
      "Ġdekhi": 2914,
      "Ġland": 2915,
      "Ġdifference": 2916,
      "Sach": 2917,
      "lege": 2918,
      "Ġnahin": 2919,
      "Ġspirit": 2920,
      "Ġbhe": 2921,
      "Ġcor": 2922,
      "Ġsunke": 2923,
      "Ġmanag": 2924,
      "Ġsabke": 2925,
      "Ġtraffic": 2926,
      "vernment": 2927,
      "ased": 2928,
      "chha": 2929,
      "Ġcricket": 2930,
      "Ġstudy": 2931,
      "ĠTV": 2932,
      "Ġphys": 2933,
      "Ġapproach": 2934,
      "new": 2935,
      "Ġdijiye": 2936,
      "Ġhuge": 2937,
      "ots": 2938,
      "Ġru": 2939,
      "mat": 2940,
      "ution": 2941,
      "Ġsnacks": 2942,
      "Ġfantastic": 2943,
      "Ġrest": 2944,
      "hani": 2945,
      "Ġist": 2946,
      "Ġdisappo": 2947,
      "Ġsense": 2948,
      "ging": 2949,
      "Ġsavings": 2950,
      "estion": 2951,
      "ĠNext": 2952,
      "Ġdou": 2953,
      "Ġrelationship": 2954,
      "pected": 2955,
      "Ġhamare": 2956,
      "Ġworkout": 2957,
      "Ġ`": 2958,
      "Ġbrain": 2959,
      "hips": 2960,
      "Wa": 2961,
      "Ġjati": 2962,
      "Ġchahta": 2963,
      "sp": 2964,
      "fer": 2965,
      "Ġannoy": 2966,
      "asty": 2967,
      "nific": 2968,
      "Ġcas": 2969,
      "engi": 2970,
      "Ġlost": 2971,
      "Ġfield": 2972,
      "Ġdiet": 2973,
      "Ġsound": 2974,
      "Ġlage": 2975,
      "Cha": 2976,
      "toh": 2977,
      "urance": 2978,
      "Ġdr": 2979,
      "kyunki": 2980,
      "ĠHaan": 2981,
      "Ġstrate": 2982,
      "Ġbachche": 2983,
      "of": 2984,
      "Ġcolor": 2985,
      "Ġrakhne": 2986,
      "osp": 2987,
      "Ġvisit": 2988,
      "Ġinflu": 2989,
      "You": 2990,
      "Ġdoc": 2991,
      "ont": 2992,
      "Ġ+": 2993,
      "Ġmarketing": 2994,
      "leep": 2995,
      "col": 2996,
      "Ġusme": 2997,
      "areness": 2998,
      "ĠFeeling": 2999,
      "Ġterri": 3000,
      "ĠAaj": 3001,
      "Ġtic": 3002,
      "ĠMe": 3003,
      "maine": 3004,
      "ĠIske": 3005,
      "Ġsafety": 3006,
      "Ġcontrib": 3007,
      "Ġopportunities": 3008,
      "Ġpossible": 3009,
      "cep": 3010,
      "Ġguil": 3011,
      "Ġekdum": 3012,
      "Ġawareness": 3013,
      "000": 3014,
      "Ġfact": 3015,
      "Ġexerc": 3016,
      "Ġannoying": 3017,
      "Ġspecifically": 3018,
      "ĠRa": 3019,
      "Ġindustry": 3020,
      "ĠCan": 3021,
      "wah": 3022,
      "Ġmili": 3023,
      "Ġpariv": 3024,
      "Ġelectric": 3025,
      "Ġwife": 3026,
      "Ġinvol": 3027,
      "ately": 3028,
      "uly": 3029,
      "ĠAre": 3030,
      "eta": 3031,
      "Ġvol": 3032,
      "Ġusually": 3033,
      "Ġpolice": 3034,
      "Ġpura": 3035,
      "Ġstudents": 3036,
      "hu": 3037,
      "lace": 3038,
      "lfriend": 3039,
      "Ġthrill": 3040,
      "Ġperspe": 3041,
      "We": 3042,
      "aces": 3043,
      "ĠCollege": 3044,
      "vide": 3045,
      "Ġsikha": 3046,
      "kat": 3047,
      "Ġ202": 3048,
      "Ġsignific": 3049,
      "Ġclose": 3050,
      "Ġ197": 3051,
      "chon": 3052,
      "Ġpadhai": 3053,
      "ian": 3054,
      "Ġmed": 3055,
      "oon": 3056,
      "ĠWhich": 3057,
      "mas": 3058,
      "usband": 3059,
      "swer": 3060,
      "Ġdesh": 3061,
      "anna": 3062,
      "Ġcharm": 3063,
      "urb": 3064,
      "Ġ15": 3065,
      "Ġjanm": 3066,
      "Ġ196": 3067,
      "Ġagree": 3068,
      "Ġexpress": 3069,
      "Ġtechni": 3070,
      "icy": 3071,
      "Ġsports": 3072,
      "ses": 3073,
      "Ġreport": 3074,
      "Ġdress": 3075,
      "lling": 3076,
      "Ġvalid": 3077,
      "Ġstarted": 3078,
      "bal": 3079,
      "Ġbank": 3080,
      "ĠTamil": 3081,
      "ughter": 3082,
      "Ġir": 3083,
      "Ġprote": 3084,
      "Ġpoor": 3085,
      "Ġaisi": 3086,
      "Ġdone": 3087,
      "Ġdetails": 3088,
      "ĠWo": 3089,
      "hic": 3090,
      "Ġengine": 3091,
      "ĠThere": 3092,
      "akar": 3093,
      "mon": 3094,
      "Ġwhy": 3095,
      "ilities": 3096,
      "Ġcent": 3097,
      "ĠToh": 3098,
      "Ġdrive": 3099,
      "py": 3100,
      "tire": 3101,
      "umbai": 3102,
      "Ġroutine": 3103,
      "ĠDelhi": 3104,
      "ĠUniversity": 3105,
      "Right": 3106,
      "Ġhusband": 3107,
      "count": 3108,
      "Ġpuri": 3109,
      "Ġgal": 3110,
      "Ġexpens": 3111,
      "Ġfeed": 3112,
      "Ġprior": 3113,
      "zi": 3114,
      "Ġcr": 3115,
      "Ġask": 3116,
      "Ġsing": 3117,
      "Ġtwo": 3118,
      "imal": 3119,
      "Ġenough": 3120,
      "Ġfeature": 3121,
      "Ġcouldn": 3122,
      "Ġforward": 3123,
      "Ġalone": 3124,
      "Ġfle": 3125,
      "umar": 3126,
      "go": 3127,
      "Ġchalte": 3128,
      "ĠChill": 3129,
      "commend": 3130,
      "*.": 3131,
      "Ġpost": 3132,
      "Ġwr": 3133,
      "izza": 3134,
      "Ġhy": 3135,
      "Ġregular": 3136,
      "dule": 3137,
      "Ġake": 3138,
      "Ġgirlfriend": 3139,
      "ography": 3140,
      "ardast": 3141,
      "Ġstartup": 3142,
      "do": 3143,
      "Ġinformation": 3144,
      "ĠTry": 3145,
      "Ġsangeet": 3146,
      "Ġcame": 3147,
      "Ġsongs": 3148,
      "Can": 3149,
      "side": 3150,
      "ĠPehle": 3151,
      "hine": 3152,
      "Ġmyself": 3153,
      "Ġevents": 3154,
      "Ġrecommend": 3155,
      "Ġattra": 3156,
      "Ġgardening": 3157,
      "Ġfix": 3158,
      "Ġconsider": 3159,
      "Ġkaisi": 3160,
      "Ġtrick": 3161,
      "Ġsecurity": 3162,
      "abardast": 3163,
      "Ġign": 3164,
      "Ġaccess": 3165,
      "ict": 3166,
      "So": 3167,
      "Ġbanao": 3168,
      "ji": 3169,
      "aye": 3170,
      "ima": 3171,
      "Ġav": 3172,
      "Ġlights": 3173,
      "Ġtrue": 3174,
      "stal": 3175,
      "epend": 3176,
      "eni": 3177,
      "Acha": 3178,
      "Ġslow": 3179,
      "Ġrev": 3180,
      "Ġtaking": 3181,
      "zation": 3182,
      "Ġalmost": 3183,
      "mote": 3184,
      "Ġfayda": 3185,
      "Ġ$": 3186,
      "Ġsummer": 3187,
      "Ġaudi": 3188,
      "heere": 3189,
      "Ġzabardast": 3190,
      "Ġgaane": 3191,
      "Ġbanaye": 3192,
      "ister": 3193,
      "à¤°": 3194,
      "Ma": 3195,
      "Ġtasty": 3196,
      "Ġsat": 3197,
      "Ġvie": 3198,
      "Ġprasiddh": 3199,
      "ĠFo": 3200,
      "alag": 3201,
      "ĠFirst": 3202,
      "Ġflav": 3203,
      "just": 3204,
      "Ġob": 3205,
      "Ġrecog": 3206,
      "Ġrahenge": 3207,
      "ĠBa": 3208,
      "Ġaction": 3209,
      "ĠIsse": 3210,
      "Ġparticipate": 3211,
      "Ġpie": 3212,
      "Ka": 3213,
      "Ġbreath": 3214,
      "aur": 3215,
      "Ġson": 3216,
      "acy": 3217,
      "akes": 3218,
      "Ġorganize": 3219,
      "No": 3220,
      "esterday": 3221,
      "Ġdoston": 3222,
      "Ġlucky": 3223,
      "Jab": 3224,
      "Ġconcept": 3225,
      "emal": 3226,
      "--": 3227,
      "Ġandar": 3228,
      "Ġfavour": 3229,
      "orrow": 3230,
      "Ġtrek": 3231,
      "Ġbeha": 3232,
      "Ġud": 3233,
      "Ġaapke": 3234,
      "Ġfootball": 3235,
      "nic": 3236,
      "nat": 3237,
      "Ġsar": 3238,
      "Ġpehla": 3239,
      "Ġgathering": 3240,
      "Ġistemal": 3241,
      "Ġpainting": 3242,
      "put": 3243,
      "Ġdeserve": 3244,
      "lass": 3245,
      "Ġsocho": 3246,
      "Ġapps": 3247,
      "Ġmotivation": 3248,
      "Ġdoctor": 3249,
      "sab": 3250,
      "Ġworking": 3251,
      "orn": 3252,
      "Ġchhote": 3253,
      "Ġtools": 3254,
      "Ġdarr": 3255,
      "Ġshort": 3256,
      "Ġwed": 3257,
      "Ġjud": 3258,
      "Ġkshe": 3259,
      "Ġever": 3260,
      "Ġcase": 3261,
      "Ġweather": 3262,
      "Ġghoom": 3263,
      "storm": 3264,
      "ume": 3265,
      "Ġyog": 3266,
      "Ġprad": 3267,
      "hor": 3268,
      "Ġclub": 3269,
      "Ġcurren": 3270,
      "mere": 3271,
      "haps": 3272,
      "Ġable": 3273,
      "Ġconta": 3274,
      "Ġindi": 3275,
      "ĠMat": 3276,
      "thers": 3277,
      "Ġmeeting": 3278,
      "ches": 3279,
      "amb": 3280,
      "Ġfavourite": 3281,
      "Ġwalk": 3282,
      "Ġminute": 3283,
      "ched": 3284,
      "Tum": 3285,
      "yar": 3286,
      "Ġequ": 3287,
      "Ya": 3288,
      "ĠSun": 3289,
      "Ġhume": 3290,
      "ĠAlso": 3291,
      "Ġcoming": 3292,
      "Ġkhela": 3293,
      "Ġcake": 3294,
      "amily": 3295,
      "ĠCon": 3296,
      "Ġava": 3297,
      "Ġstay": 3298,
      "Ġpal": 3299,
      "yle": 3300,
      "Ġdeb": 3301,
      "Ġpict": 3302,
      "Ġprojects": 3303,
      "Ġpaisa": 3304,
      "Ġmach": 3305,
      "sc": 3306,
      "Ġuttar": 3307,
      "Ġfunds": 3308,
      "Ġbacha": 3309,
      "Ġnear": 3310,
      "Ġmorning": 3311,
      "Ġadop": 3312,
      "ĠBrit": 3313,
      "ĠPlus": 3314,
      "Ġise": 3315,
      "Ġsthap": 3316,
      "Ġprapt": 3317,
      "Ġkaunsa": 3318,
      "bhag": 3319,
      "ĠEnjoy": 3320,
      "the": 3321,
      "Ġpassion": 3322,
      "Ġappreciate": 3323,
      "Ġune": 3324,
      "Ġoften": 3325,
      "cipe": 3326,
      "Ġguys": 3327,
      "ork": 3328,
      "Ġpast": 3329,
      "Ġless": 3330,
      "ĠThis": 3331,
      "wards": 3332,
      "ĠPr": 3333,
      "Ġstudi": 3334,
      "Ġhindi": 3335,
      "Ġkhul": 3336,
      "Ġentertain": 3337,
      "has": 3338,
      "What": 3339,
      "Ġcine": 3340,
      "other": 3341,
      "arty": 3342,
      "Ġbase": 3343,
      "Ġisn": 3344,
      "Ġfan": 3345,
      "alize": 3346,
      "Ġchahte": 3347,
      "tu": 3348,
      "Ġyoung": 3349,
      "Ġneighbor": 3350,
      "uary": 3351,
      "Ġweight": 3352,
      "ls": 3353,
      "ujhse": 3354,
      "Ġavail": 3355,
      "ults": 3356,
      "Ġworth": 3357,
      "Ġfigure": 3358,
      "chalo": 3359,
      "ised": 3360,
      "ĠAd": 3361,
      "ĠTujhe": 3362,
      "term": 3363,
      "yog": 3364,
      "esha": 3365,
      "Ġstreng": 3366,
      "Ġembarrassing": 3367,
      "how": 3368,
      "Ġstand": 3369,
      "Ġtune": 3370,
      "isha": 3371,
      "Ġran": 3372,
      "Ġchoice": 3373,
      "Ġseek": 3374,
      "awa": 3375,
      "Ġprep": 3376,
      "Ġpurane": 3377,
      "Ġpriv": 3378,
      "ĠUnhe": 3379,
      "Ġkahaniyan": 3380,
      "ĠBeng": 3381,
      "chen": 3382,
      "ĠTr": 3383,
      "Ġchanges": 3384,
      "veni": 3385,
      "Ġjismein": 3386,
      "Ġsleep": 3387,
      "Ġbag": 3388,
      "Ġeco": 3389,
      "Ġpup": 3390,
      "Ġmountain": 3391,
      "let": 3392,
      "kward": 3393,
      "Ġther": 3394,
      "Ġdepend": 3395,
      "Ġschedule": 3396,
      "ĠSingh": 3397,
      "Ġpromotion": 3398,
      "cc": 3399,
      "tivity": 3400,
      "Ġrecipe": 3401,
      "timate": 3402,
      "Ġsoon": 3403,
      "Ġmazed": 3404,
      "Ġdega": 3405,
      "whel": 3406,
      "Ġrakho": 3407,
      "Ġignore": 3408,
      "val": 3409,
      "Ġpatience": 3410,
      "Ġphoto": 3411,
      "Ġworst": 3412,
      "Ġrakhein": 3413,
      "Ġfeedback": 3414,
      "Ġsteps": 3415,
      "Ġsoci": 3416,
      "tumhe": 3417,
      "ĠGood": 3418,
      "Ġdhoond": 3419,
      "Ġfund": 3420,
      "Ġrakha": 3421,
      "Ġbrainstorm": 3422,
      "ava": 3423,
      "Ġseekhna": 3424,
      "Ġoutdoor": 3425,
      "gra": 3426,
      "Ġsthit": 3427,
      "Ġrehti": 3428,
      "Ġflow": 3429,
      "Ġhop": 3430,
      "Ġhistor": 3431,
      "Ġwaiting": 3432,
      "Ġneeds": 3433,
      "Ġabsolutely": 3434,
      "conom": 3435,
      "Ġproducts": 3436,
      "pas": 3437,
      "ats": 3438,
      "Ġquestions": 3439,
      "Ġcontact": 3440,
      "Ġcou": 3441,
      "Ġbaarish": 3442,
      "Ġfore": 3443,
      "Ġwebs": 3444,
      "Thanks": 3445,
      "Ġbiryani": 3446,
      "made": 3447,
      "ĠAbhi": 3448,
      "Ġgold": 3449,
      "Ġdev": 3450,
      "Ġwrong": 3451,
      "Ġdaughter": 3452,
      "ĠSaathi": 3453,
      "amajh": 3454,
      "Ġvya": 3455,
      "ware": 3456,
      "ĠMumbai": 3457,
      "Ġresponsibility": 3458,
      "Ġsignificant": 3459,
      "oration": 3460,
      "Ġlein": 3461,
      "Ġcy": 3462,
      "aches": 3463,
      "Ġachcha": 3464,
      "Re": 3465,
      "ints": 3466,
      "Ġpee": 3467,
      "vious": 3468,
      "Ġchildhood": 3469,
      "ĠWorld": 3470,
      "verse": 3471,
      "Ġdirectly": 3472,
      "Ġbadhe": 3473,
      "Ġyaadein": 3474,
      "Ġ195": 3475,
      "ficial": 3476,
      "ĠHal": 3477,
      "Ġ17": 3478,
      "Ġflexi": 3479,
      "mosp": 3480,
      "kets": 3481,
      "Ġcharacters": 3482,
      "wat": 3483,
      "Ġhours": 3484,
      "net": 3485,
      "Ġpizza": 3486,
      "Ġawkward": 3487,
      "Ġguess": 3488,
      "Ġsuggest": 3489,
      "Ġdedication": 3490,
      "Ġjyada": 3491,
      "Ġgovernment": 3492,
      "ĠPer": 3493,
      "ards": 3494,
      "Ġ30": 3495,
      "Riya": 3496,
      "Ġscience": 3497,
      "Ġoverwhel": 3498,
      "unga": 3499,
      "Ġdef": 3500,
      "hank": 3501,
      "ip": 3502,
      "Ġhun": 3503,
      "Ġorganic": 3504,
      "Ġbuilding": 3505,
      "Ġbring": 3506,
      "Ġglad": 3507,
      "ms": 3508,
      "Ġà¤ķ": 3509,
      "Ġsecond": 3510,
      "estern": 3511,
      "jee": 3512,
      "Ġfinal": 3513,
      "Ġwedding": 3514,
      "itch": 3515,
      "Ġsy": 3516,
      "Ġiski": 3517,
      "jo": 3518,
      "Tu": 3519,
      "Ġcountry": 3520,
      "Ġpromote": 3521,
      "Ġshiksha": 3522,
      "Ġanxious": 3523,
      "working": 3524,
      "Ġmazedaar": 3525,
      "estyle": 3526,
      "Ġdistra": 3527,
      "Ġyahan": 3528,
      "Ġmetho": 3529,
      "resh": 3530,
      "Aur": 3531,
      "Ġdheere": 3532,
      "Ġhoni": 3533,
      "zar": 3534,
      "ises": 3535,
      "ĠMad": 3536,
      "ĠSchool": 3537,
      "Ġinsurance": 3538,
      "Ġmen": 3539,
      "Ġmut": 3540,
      "mosphere": 3541,
      "rish": 3542,
      "Ġrahegi": 3543,
      "Ġanswer": 3544,
      "Ġattend": 3545,
      "Ġjao": 3546,
      "Ġstrength": 3547,
      "Ġleti": 3548,
      "Ġliving": 3549,
      "Ġwow": 3550,
      "Ġkehte": 3551,
      "Ġupar": 3552,
      "cknow": 3553,
      "Ġrelief": 3554,
      "Ġfil": 3555,
      "Ġhill": 3556,
      "ĠTumne": 3557,
      "Ġmodel": 3558,
      "Ġrah": 3559,
      "ooja": 3560,
      "Ġdish": 3561,
      "Ġconst": 3562,
      "omat": 3563,
      "Ġwind": 3564,
      "Ġcolors": 3565,
      "undar": 3566,
      "Ġhurt": 3567,
      "ĠSp": 3568,
      "Ġanal": 3569,
      "Chalo": 3570,
      "ĠEven": 3571,
      "Ġscore": 3572,
      "Ġfall": 3573,
      "ĠðŁĺī": 3574,
      "orable": 3575,
      "ild": 3576,
      "boo": 3577,
      "soos": 3578,
      "Achha": 3579,
      "sit": 3580,
      "Ġwear": 3581,
      "bab": 3582,
      "alized": 3583,
      "avi": 3584,
      "nivers": 3585,
      "Ġchat": 3586,
      "Ġacknow": 3587,
      "Ġrehne": 3588,
      "Ġconfident": 3589,
      "yo": 3590,
      "Ġaudience": 3591,
      "Ġcut": 3592,
      "Ġtext": 3593,
      "fied": 3594,
      "Ġcourses": 3595,
      "Ġhaven": 3596,
      "Ġdest": 3597,
      "ĠChe": 3598,
      "Ġbaby": 3599,
      "Ġatmosphere": 3600,
      "ĠBritish": 3601,
      "Ġteri": 3602,
      "Ġpotential": 3603,
      "Ġindepend": 3604,
      "Ġmonths": 3605,
      "Ġdevelopment": 3606,
      "range": 3607,
      "Ġkamaal": 3608,
      "ĠTe": 3609,
      "Ġsit": 3610,
      "Ġyesterday": 3611,
      "Ġavailable": 3612,
      "Ġtopic": 3613,
      "ĠJo": 3614,
      "Ġrem": 3615,
      "ĠQ": 3616,
      "Ġsoft": 3617,
      "mak": 3618,
      "krit": 3619,
      "ich": 3620,
      "Ġdead": 3621,
      "Ġroz": 3622,
      "unjab": 3623,
      "Ġexamp": 3624,
      "Ġconte": 3625,
      "Ġfair": 3626,
      "Ġgr": 3627,
      "Ġadjust": 3628,
      "niversary": 3629,
      "ken": 3630,
      "Ġbox": 3631,
      "Ġgreen": 3632,
      "Ġlifestyle": 3633,
      "Well": 3634,
      "Ġshar": 3635,
      "Ġvar": 3636,
      "Ġcredit": 3637,
      "Ġguid": 3638,
      "ime": 3639,
      "Ġlow": 3640,
      "Ġvyak": 3641,
      "Ġcover": 3642,
      "ĠCongratulations": 3643,
      "ĠBahut": 3644,
      "Ġscen": 3645,
      "Ġmilenge": 3646,
      "Ġforget": 3647,
      "Ġbehtar": 3648,
      "Ġpack": 3649,
      "Ġjaayega": 3650,
      "Ġcommunication": 3651,
      "ĠSan": 3652,
      "Ġanother": 3653,
      "ĠFocus": 3654,
      "Ġengage": 3655,
      "Ġloss": 3656,
      "bre": 3657,
      "eless": 3658,
      "Ġmehsoos": 3659,
      "Ġbrother": 3660,
      "Ġneg": 3661,
      "Ġworkshop": 3662,
      "Ġtherap": 3663,
      "oc": 3664,
      "Ġprovide": 3665,
      "Ġprati": 3666,
      "Ġtricky": 3667,
      "Ġmilna": 3668,
      "ĠNow": 3669,
      "Ġterrible": 3670,
      "ĠAf": 3671,
      "Ġservices": 3672,
      "Ġdenge": 3673,
      "itna": 3674,
      "Ġloc": 3675,
      "Ġchak": 3676,
      "When": 3677,
      "Ġdha": 3678,
      "Ġkaroge": 3679,
      "Ġtur": 3680,
      "asya": 3681,
      "aster": 3682,
      "ĠKis": 3683,
      "Ġtalent": 3684,
      "Ġplant": 3685,
      "orary": 3686,
      "Ġweeks": 3687,
      "Ġbhoolna": 3688,
      "ĠSam": 3689,
      "atable": 3690,
      "uine": 3691,
      "hesh": 3692,
      "Ġstylish": 3693,
      "Ġreality": 3694,
      "Ġnirdes": 3695,
      "ĠNational": 3696,
      "Ġkhelte": 3697,
      "Ġjump": 3698,
      "roc": 3699,
      "Ġperspective": 3700,
      "Ġsince": 3701,
      "Ġcompanies": 3702,
      "was": 3703,
      "Ġpayenge": 3704,
      "Ġsent": 3705,
      "Ġglo": 3706,
      "à¤Ĥ": 3707,
      "Ġcam": 3708,
      "Ġconveni": 3709,
      "Ġregion": 3710,
      "Ġoutfits": 3711,
      "Ġbhasha": 3712,
      "Ġlenge": 3713,
      "iment": 3714,
      "Ġcomplex": 3715,
      "ĠSm": 3716,
      "Ġhuman": 3717,
      "ĠUske": 3718,
      "Ġcrazy": 3719,
      "Ġpan": 3720,
      "xpected": 3721,
      "Ġ12": 3722,
      "Ġleta": 3723,
      "Ġtold": 3724,
      "Ġ194": 3725,
      "Ġbachpan": 3726,
      "Ġtype": 3727,
      "iet": 3728,
      "itage": 3729,
      "Ġleast": 3730,
      "Ġdekhkar": 3731,
      "Ġlegit": 3732,
      "Ġearly": 3733,
      "Ġpartic": 3734,
      "ulti": 3735,
      "Ġjiska": 3736,
      "ĠBohat": 3737,
      "Ġnostal": 3738,
      "Ġlanguages": 3739,
      "ques": 3740,
      "edy": 3741,
      "Ġkid": 3742,
      "kaal": 3743,
      "Ġwapas": 3744,
      "Ġbill": 3745,
      "Ġmajor": 3746,
      "Ġkhaan": 3747,
      "Ġaana": 3748,
      "ented": 3749,
      "colate": 3750,
      "Ġirrit": 3751,
      "miss": 3752,
      "Ġkafi": 3753,
      "Ġartists": 3754,
      "Ġacting": 3755,
      "mukh": 3756,
      "ĠAmerican": 3757,
      "mand": 3758,
      "Ġcry": 3759,
      "you": 3760,
      "Ġloon": 3761,
      "where": 3762,
      "idd": 3763,
      "Ġinclude": 3764,
      "Ġvers": 3765,
      "Ġdisappoin": 3766,
      "fli": 3767,
      "Ġalawa": 3768,
      "aries": 3769,
      "Nahi": 3770,
      "ĠTra": 3771,
      "Ġorig": 3772,
      "Ġrecip": 3773,
      "ished": 3774,
      "ili": 3775,
      "Ġtotal": 3776,
      "Ġfru": 3777,
      "Ġcontin": 3778,
      "Ġmaa": 3779,
      "Ġmai": 3780,
      "artment": 3781,
      "Ġimportance": 3782,
      "Ġkami": 3783,
      "Ġeach": 3784,
      "ird": 3785,
      "Ġanyone": 3786,
      "Ġbataya": 3787,
      "ĠSabse": 3788,
      "Ġcinema": 3789,
      "ĠGlad": 3790,
      "Ġlikha": 3791,
      "Ġlagi": 3792,
      "Ġbeta": 3793,
      "Ġcalm": 3794,
      "Ġkitchen": 3795,
      "ĠShayad": 3796,
      "cel": 3797,
      "Ġgenuine": 3798,
      "Ġang": 3799,
      "Ġconversation": 3800,
      "Ġexercise": 3801,
      "Ġbhag": 3802,
      "Ġep": 3803,
      "Ġhaal": 3804,
      "Ġsubah": 3805,
      "ooth": 3806,
      "Ġconfus": 3807,
      "Ġsolve": 3808,
      "Ġcand": 3809,
      "Ġhesit": 3810,
      "Ġago": 3811,
      "Ġhistorical": 3812,
      "Ġtom": 3813,
      "Ġbed": 3814,
      "Ġjaankari": 3815,
      "Ġcurrent": 3816,
      "Ġice": 3817,
      "ĠChin": 3818,
      "iction": 3819,
      "ĠBang": 3820,
      "ost": 3821,
      "Ġsochne": 3822,
      "Ġnotice": 3823,
      "Ġtaree": 3824,
      "tho": 3825,
      "Ġsil": 3826,
      "ending": 3827,
      "ĠKitni": 3828,
      "aram": 3829,
      "aging": 3830,
      "ĠTere": 3831,
      "Ġpeaceful": 3832,
      "Ġkhila": 3833,
      "Ġproductivity": 3834,
      "Ġgradu": 3835,
      "Ġkhol": 3836,
      "Ġresults": 3837,
      "Ġbuild": 3838,
      "ert": 3839,
      "gies": 3840,
      "Ġ16": 3841,
      "Ġpramukh": 3842,
      "Ġtomorrow": 3843,
      "Ġaayenge": 3844,
      "Ġpahunch": 3845,
      "Ġsabka": 3846,
      "Ġmeal": 3847,
      "Ġneeded": 3848,
      "Ġrunning": 3849,
      "utes": 3850,
      "Ġsuccessful": 3851,
      "Ġdeg": 3852,
      "ĠInd": 3853,
      "Ġdocument": 3854,
      "ĠPunjab": 3855,
      "Ġseem": 3856,
      "Ġmostly": 3857,
      "eter": 3858,
      "ership": 3859,
      "Ġresort": 3860,
      "Ġbatayein": 3861,
      "Ġorigin": 3862,
      "Ġplaces": 3863,
      "Woh": 3864,
      "Ġwriting": 3865,
      "Ġkaran": 3866,
      "Ġmaz": 3867,
      "Ġchallenging": 3868,
      "Ġaff": 3869,
      "edom": 3870,
      "atives": 3871,
      "adem": 3872,
      "Ġshuruat": 3873,
      "lev": 3874,
      "Ġprepared": 3875,
      "Ġnibha": 3876,
      "pre": 3877,
      "mail": 3878,
      "tention": 3879,
      "Ġdikkat": 3880,
      "Ġstruggle": 3881,
      "bhai": 3882,
      "ror": 3883,
      "Ġuss": 3884,
      "ĠLog": 3885,
      "ested": 3886,
      "Ġaapne": 3887,
      "Ġeconom": 3888,
      "Ġreviews": 3889,
      "gan": 3890,
      "Ġacche": 3891,
      "Ġhelps": 3892,
      "Ġjate": 3893,
      "lack": 3894,
      "Ġnikaal": 3895,
      "Ġonce": 3896,
      "Ġteacher": 3897,
      "uda": 3898,
      "Ġkarungi": 3899,
      "Ġheritage": 3900,
      "Ġpicnic": 3901,
      "Ġmotivate": 3902,
      "ĠThose": 3903,
      "Ġplaying": 3904,
      "Ġunexpected": 3905,
      "ĠSup": 3906,
      "Ġparticular": 3907,
      "Ġmeans": 3908,
      "Ġgets": 3909,
      "Ġcoach": 3910,
      "Ġseva": 3911,
      "Ġvent": 3912,
      "Ġtraditions": 3913,
      "ĠDiwali": 3914,
      "Ġdriving": 3915,
      "Ġtransport": 3916,
      "ĠJan": 3917,
      "Ġnothing": 3918,
      "Ġapply": 3919,
      "ined": 3920,
      "Ġdal": 3921,
      "Ġpartner": 3922,
      "Ro": 3923,
      "Ġismein": 3924,
      "zaar": 3925,
      "Ġconcern": 3926,
      "Ġyet": 3927,
      "Ġinnovative": 3928,
      "ave": 3929,
      "ĠChr": 3930,
      "Ġbataye": 3931,
      "Ġbaith": 3932,
      "Ġboy": 3933,
      "Ġpractical": 3934,
      "Ġadopt": 3935,
      "ĠUnited": 3936,
      "hib": 3937,
      "isions": 3938,
      "Ġess": 3939,
      "Ġgave": 3940,
      "Ġactive": 3941,
      "Ġrelaxation": 3942,
      "Ġdam": 3943,
      "Ġfight": 3944,
      "Ġpollution": 3945,
      "Ġexpl": 3946,
      "Ġsthan": 3947,
      "Ġport": 3948,
      "Ġothers": 3949,
      "ohn": 3950,
      "Ġbache": 3951,
      "Ġride": 3952,
      "Ġspeed": 3953,
      "ĠMaine": 3954,
      "zon": 3955,
      "Ġposition": 3956,
      "Ġaam": 3957,
      "ĠKaise": 3958,
      "Ġunderstanding": 3959,
      "ray": 3960,
      "Ġrecipes": 3961,
      "anki": 3962,
      "Ġcrit": 3963,
      "Ġwords": 3964,
      "ĠSouth": 3965,
      "Ġfac": 3966,
      "Ġgalat": 3967,
      "Ġmemorable": 3968,
      "bahut": 3969,
      "ĠPa": 3970,
      "Ġchakkar": 3971,
      "Ġadvice": 3972,
      "Ġbenefits": 3973,
      "Ġphotography": 3974,
      "Ġcru": 3975,
      "ĠBha": 3976,
      "lid": 3977,
      "Ġjar": 3978,
      "Ġtwist": 3979,
      "erala": 3980,
      "Ġmatter": 3981,
      "ĠOkay": 3982,
      "Ġprefer": 3983,
      "Ġaccount": 3984,
      "Ġrespect": 3985,
      "Ġarrange": 3986,
      "bbies": 3987,
      "cour": 3988,
      "nam": 3989,
      "ĠWar": 3990,
      "tag": 3991,
      "Ġsap": 3992,
      "Ġhold": 3993,
      "ĠKal": 3994,
      "Ġtable": 3995,
      "Ġtay": 3996,
      "ĠLeague": 3997,
      "Ġwebsite": 3998,
      "Ġsim": 3999,
      "Ġhor": 4000,
      "Ġcoun": 4001,
      "Ġthoughts": 4002,
      "Ġmanager": 4003,
      "omen": 4004,
      "Ġsour": 4005,
      "Ġtechniques": 4006,
      "alls": 4007,
      "Ġsuggestions": 4008,
      "ged": 4009,
      "aling": 4010,
      "ksar": 4011,
      "Ġtrends": 4012,
      "Ġaccident": 4013,
      "udden": 4014,
      "illi": 4015,
      "Ġsession": 4016,
      "à¥ĭ": 4017,
      "Ġfeatures": 4018,
      "Ġbanata": 4019,
      "Ġroles": 4020,
      "Ġdesigns": 4021,
      "Ġvideos": 4022,
      "Ġpadegi": 4023,
      "ller": 4024,
      "Ġfusion": 4025,
      "coun": 4026,
      "Ġconsist": 4027,
      "Ġsubject": 4028,
      "nt": 4029,
      "ĠAs": 4030,
      "Ġpuppy": 4031,
      "Ġbait": 4032,
      "Ġmateri": 4033,
      "ĠSh": 4034,
      "desh": 4035,
      "atha": 4036,
      "ĠSw": 4037,
      "Ġexams": 4038,
      "*!": 4039,
      "dd": 4040,
      "Ġladki": 4041,
      "Ġquickly": 4042,
      "Ġbanti": 4043,
      "Ġbhej": 4044,
      "Ġbhoom": 4045,
      "Ġenhan": 4046,
      "Ġwish": 4047,
      "ĠPooja": 4048,
      "ĠUS": 4049,
      "Ġattention": 4050,
      "Ġfunction": 4051,
      "Ġhiking": 4052,
      "Ġamo": 4053,
      "Ġreplace": 4054,
      "ĠShi": 4055,
      "Raj": 4056,
      "hand": 4057,
      "à¥Ģ": 4058,
      "osed": 4059,
      "Ġartic": 4060,
      "Ġatta": 4061,
      "ĠFin": 4062,
      "Ġeffici": 4063,
      "nahi": 4064,
      "Ġaddress": 4065,
      "top": 4066,
      "Ġthankfully": 4067,
      "aving": 4068,
      "ĠKhan": 4069,
      "ori": 4070,
      "Hi": 4071,
      "Ġ|": 4072,
      "hol": 4073,
      "ulation": 4074,
      "wan": 4075,
      "Ġcup": 4076,
      "Ġfine": 4077,
      "essions": 4078,
      "oid": 4079,
      "Ġmis": 4080,
      "Ġsamman": 4081,
      "Ġgroc": 4082,
      "Ġaayegi": 4083,
      "OM": 4084,
      "itude": 4085,
      "Ġgad": 4086,
      "Ġscreen": 4087,
      "Ġpadha": 4088,
      "Ġlater": 4089,
      "ula": 4090,
      "ĠFor": 4091,
      "Ġthik": 4092,
      "ayed": 4093,
      "inta": 4094,
      "Ġane": 4095,
      "Ġjaisa": 4096,
      "Ġhobbies": 4097,
      "ules": 4098,
      "Ġbane": 4099,
      "ĠChrist": 4100,
      "à¤¨": 4101,
      "Ġvishesh": 4102,
      "Ġhawa": 4103,
      "lip": 4104,
      "Ġsum": 4105,
      "Ġage": 4106,
      "laim": 4107,
      "ĠFeels": 4108,
      "Ġconcert": 4109,
      "ĠHopefully": 4110,
      "Ġlunch": 4111,
      "Ġproblems": 4112,
      "Ġkharch": 4113,
      "*?": 4114,
      "oint": 4115,
      "Ġwalking": 4116,
      "Ġteams": 4117,
      "Ġdoosre": 4118,
      "Ġvyakti": 4119,
      "Ġclim": 4120,
      "Ġactors": 4121,
      "ison": 4122,
      "Ġcross": 4123,
      "Ġasaan": 4124,
      "Ġanxiety": 4125,
      "Ġjeevan": 4126,
      "Ġcrow": 4127,
      "Ġtown": 4128,
      "Ġattract": 4129,
      "ĠTumhari": 4130,
      "Ġflexibility": 4131,
      "Ġkahi": 4132,
      "Film": 4133,
      "ĠRam": 4134,
      "Ġhoping": 4135,
      "gin": 4136,
      "Ġul": 4137,
      "Ġdecisions": 4138,
      "Ġcatch": 4139,
      "ĠHigh": 4140,
      "Ġsmooth": 4141,
      "Ġtare": 4142,
      "Ġbehavi": 4143,
      "**": 4144,
      "meri": 4145,
      "Ġkaregi": 4146,
      "ability": 4147,
      "ĠWould": 4148,
      "jan": 4149,
      "ever": 4150,
      "Ġrecogni": 4151,
      "ode": 4152,
      "gia": 4153,
      "Ġfinding": 4154,
      "Ġmessage": 4155,
      "Ġdecorations": 4156,
      "ĠMus": 4157,
      "Ġdh": 4158,
      "Ġkarogi": 4159,
      "Ġmehnat": 4160,
      "Ġrecord": 4161,
      "Ġexpert": 4162,
      "ĠBach": 4163,
      "bhav": 4164,
      "flix": 4165,
      "ising": 4166,
      "ral": 4167,
      "ĠTumhara": 4168,
      "Ġsaaf": 4169,
      "Ġspot": 4170,
      "Ġstop": 4171,
      "Ġanya": 4172,
      "Ġrelatable": 4173,
      "Ġeasily": 4174,
      "Ġstarting": 4175,
      "Ġwarm": 4176,
      "Ġfestivals": 4177,
      "Ġones": 4178,
      "Ġshowc": 4179,
      "unte": 4180,
      "eka": 4181,
      "Ġlaw": 4182,
      "Ġtarike": 4183,
      "ley": 4184,
      "Ġitems": 4185,
      "Ġ193": 4186,
      "Ġseeing": 4187,
      "ration": 4188,
      "cl": 4189,
      "Ġrefresh": 4190,
      "ĠSar": 4191,
      "rom": 4192,
      "Ġaksar": 4193,
      "olution": 4194,
      "aat": 4195,
      "Ġmist": 4196,
      "Ġmissing": 4197,
      "ĠMatlab": 4198,
      "Ġbur": 4199,
      "Ġjabki": 4200,
      "Ġchocolate": 4201,
      "Ġlega": 4202,
      "Ġsamjhi": 4203,
      "Ġcream": 4204,
      "Ġplatforms": 4205,
      "hus": 4206,
      "ffect": 4207,
      "Ġdad": 4208,
      "Ġgaming": 4209,
      "Ġprepare": 4210,
      "Ġfreedom": 4211,
      "Ġkshetra": 4212,
      "Ġstressed": 4213,
      "Ġbolta": 4214,
      "ĠLife": 4215,
      "Ġhaath": 4216,
      "Ġet": 4217,
      "ames": 4218,
      "Ġchuna": 4219,
      "Ġpaper": 4220,
      "ĠAap": 4221,
      "Ġbou": 4222,
      "Ġbuy": 4223,
      "key": 4224,
      "Ġrain": 4225,
      "Ġminutes": 4226,
      "Ġgirl": 4227,
      "Ġenhance": 4228,
      "Ġamount": 4229,
      "cken": 4230,
      "Ġhab": 4231,
      "Ġsatis": 4232,
      "Ġà¤¹": 4233,
      "bar": 4234,
      "Ġcu": 4235,
      "Ġprice": 4236,
      "Ġmutual": 4237,
      "Any": 4238,
      "Ġshift": 4239,
      "pro": 4240,
      "sing": 4241,
      "Ġleke": 4242,
      "Ġpick": 4243,
      "ekho": 4244,
      "Ġoverall": 4245,
      "tumne": 4246,
      "Ġsou": 4247,
      "Ġcomedy": 4248,
      "Ġlu": 4249,
      "Ġdogs": 4250,
      "Ġmulti": 4251,
      "Ġinspiration": 4252,
      "Yes": 4253,
      "Ġwild": 4254,
      "Ġloan": 4255,
      "Ġperformances": 4256,
      "ubs": 4257,
      "Ġsecure": 4258,
      "ĠPradesh": 4259,
      "à¤¤": 4260,
      "ĠEveryone": 4261,
      "Ġ[": 4262,
      "Ġpares": 4263,
      "ctic": 4264,
      "Ġkon": 4265,
      "Ġbanayein": 4266,
      "ĠVi": 4267,
      "Ġ14": 4268,
      "Ġplayer": 4269,
      "Ġareas": 4270,
      "Unhone": 4271,
      "Kaun": 4272,
      "Ġlearn": 4273,
      "Ġbacche": 4274,
      "Ġknew": 4275,
      "Ġsolution": 4276,
      "Ġunf": 4277,
      "Ġcalled": 4278,
      "Ġkharidne": 4279,
      "Ġinternational": 4280,
      "Ġlat": 4281,
      "oll": 4282,
      "Ġtyp": 4283,
      "Ġways": 4284,
      "Ġstat": 4285,
      "Ġsessions": 4286,
      "Ġbright": 4287,
      "Ġrelationships": 4288,
      "Ġanek": 4289,
      "Ġbath": 4290,
      "Ġeffect": 4291,
      "Hum": 4292,
      "Per": 4293,
      "ĠKar": 4294,
      "Ġdegree": 4295,
      "Ġtareeka": 4296,
      "ĠHo": 4297,
      "Ġpoints": 4298,
      "ets": 4299,
      "ĠTel": 4300,
      "Ġpresentation": 4301,
      "arity": 4302,
      "tics": 4303,
      "Ġresult": 4304,
      "Ġvid": 4305,
      "ĠPre": 4306,
      "orth": 4307,
      "ĠAt": 4308,
      "Ġkept": 4309,
      "othes": 4310,
      "10": 4311,
      "list": 4312,
      "ĠPe": 4313,
      "Ġsaying": 4314,
      "ĠBest": 4315,
      "apa": 4316,
      "Ġmemory": 4317,
      "uments": 4318,
      "Ġrece": 4319,
      "ĠBal": 4320,
      "Ġrich": 4321,
      "Ġbattery": 4322,
      "Ġremind": 4323,
      "wal": 4324,
      "Ġshop": 4325,
      "Ġpictures": 4326,
      "Ġmill": 4327,
      "Ġname": 4328,
      "Ġthats": 4329,
      "Ġspiritual": 4330,
      "cast": 4331,
      "Ġvibr": 4332,
      "Ġupdate": 4333,
      "ĠParty": 4334,
      "Ġweird": 4335,
      "ĠMal": 4336,
      "waab": 4337,
      "Ġpuch": 4338,
      "ĠTension": 4339,
      "ster": 4340,
      "Ġplot": 4341,
      "anskrit": 4342,
      "sure": 4343,
      "Ġgaon": 4344,
      "Ġphysical": 4345,
      "Ġbolte": 4346,
      "Ġext": 4347,
      "ĠNet": 4348,
      "ĠAp": 4349,
      "ĠSci": 4350,
      "Ġexhib": 4351,
      "Ġcomput": 4352,
      "Ġid": 4353,
      "Ġshan": 4354,
      "Ġnu": 4355,
      "Ġwatching": 4356,
      "ĠHind": 4357,
      "Ġanno": 4358,
      "usam": 4359,
      "ĠDefinitely": 4360,
      "ini": 4361,
      "ĠMaha": 4362,
      "uti": 4363,
      "Ġfire": 4364,
      "Ġbadhta": 4365,
      "Waah": 4366,
      "bum": 4367,
      "Ġremote": 4368,
      "Ġboard": 4369,
      "Ġbolti": 4370,
      "chal": 4371,
      "ĠMon": 4372,
      "cent": 4373,
      "lement": 4374,
      "mporary": 4375,
      "Ġsecret": 4376,
      "Ġcrowd": 4377,
      "off": 4378,
      "ĠAc": 4379,
      "Ġgifts": 4380,
      ".\"": 4381,
      "Ġspeak": 4382,
      "Ġemail": 4383,
      "ĠIf": 4384,
      "Ġtruly": 4385,
      "Ġmit": 4386,
      "jay": 4387,
      "resent": 4388,
      "Ġbanne": 4389,
      "*,": 4390,
      "Ġgoal": 4391,
      "Ġsundar": 4392,
      "Ġdhar": 4393,
      "Ġgenerally": 4394,
      "hyaan": 4395,
      "ela": 4396,
      "ĠLo": 4397,
      "Ġkhushboo": 4398,
      "Ġsambhal": 4399,
      "Ġkaroon": 4400,
      "honne": 4401,
      "Ġbasic": 4402,
      "Ġgone": 4403,
      "ĠLag": 4404,
      "avy": 4405,
      "Ġdoub": 4406,
      "Anytime": 4407,
      "load": 4408,
      "ights": 4409,
      "Ġnon": 4410,
      "cious": 4411,
      "Ġcombo": 4412,
      "Ġguidance": 4413,
      "over": 4414,
      "Ġkarwa": 4415,
      "Ġusmein": 4416,
      "Ġutha": 4417,
      "free": 4418,
      "Ġwood": 4419,
      "à¤¿": 4420,
      "cipline": 4421,
      "Ġsand": 4422,
      "ĠHapp": 4423,
      "cri": 4424,
      "abad": 4425,
      "Ġworkshops": 4426,
      "ĠRed": 4427,
      "anta": 4428,
      "Ġswim": 4429,
      "asht": 4430,
      "Ġhosp": 4431,
      "ante": 4432,
      "Ġpada": 4433,
      "Ġstrategy": 4434,
      "Ġbased": 4435,
      "Ġtrekking": 4436,
      "Ġauthor": 4437,
      "redi": 4438,
      "ĠLos": 4439,
      "arshan": 4440,
      "Ġmemb": 4441,
      "Ġyah": 4442,
      "Ġshocked": 4443,
      "Ġcollab": 4444,
      "Ġdetail": 4445,
      "Ġschools": 4446,
      "ridge": 4447,
      "asta": 4448,
      "Ġquiet": 4449,
      "Ġpowerful": 4450,
      "ologi": 4451,
      "Ġdekhe": 4452,
      "ĠNeha": 4453,
      "Ġcouple": 4454,
      "Ġrequ": 4455,
      "Ġexpensive": 4456,
      "Ġgri": 4457,
      "Ġexample": 4458,
      "Ġreach": 4459,
      "ekend": 4460,
      "Ġawful": 4461,
      "Ġflight": 4462,
      "Ġshaamil": 4463,
      "Ġguy": 4464,
      "Ġinvolve": 4465,
      "Ġinterested": 4466,
      "Ġchu": 4467,
      "Ġcapt": 4468,
      "Uff": 4469,
      "Ġsudden": 4470,
      "ĠMust": 4471,
      "Ġchalu": 4472,
      "ĠRes": 4473,
      "Ġanim": 4474,
      "Ġsave": 4475,
      "Ġpassed": 4476,
      "ĠStates": 4477,
      "imaag": 4478,
      "Ġcuis": 4479,
      "Ġintense": 4480,
      "hinn": 4481,
      "Ġsthapit": 4482,
      "not": 4483,
      "Ġkhil": 4484,
      "Ġartist": 4485,
      "Ġchur": 4486,
      "Ġglobal": 4487,
      "Ġder": 4488,
      "Ġmahine": 4489,
      "Ġmatters": 4490,
      "Ġpayment": 4491,
      "Ġlogo": 4492,
      "Ġvalues": 4493,
      "Ġkhelne": 4494,
      "Ġprobab": 4495,
      "face": 4496,
      "OMG": 4497,
      "Ġlagbhag": 4498,
      "ĠCar": 4499,
      "Perfect": 4500,
      "Ġplayed": 4501,
      "Ġprogress": 4502,
      "Ġdimaag": 4503,
      "Ġquestion": 4504,
      "Ġprabhav": 4505,
      "fication": 4506,
      "``": 4507,
      "ugu": 4508,
      "Ġstage": 4509,
      "telling": 4510,
      "ĠKerala": 4511,
      "Ġuseful": 4512,
      "Ġjankari": 4513,
      "medi": 4514,
      "Ġjiske": 4515,
      "Ġvolunte": 4516,
      "Ġprioriti": 4517,
      "ĠMay": 4518,
      "Ugh": 4519,
      "Ġdhyaan": 4520,
      "Ġbhoomika": 4521,
      "ĠFamily": 4522,
      "Ġplastic": 4523,
      "Ġoutside": 4524,
      "Ġclick": 4525,
      "Ġcommit": 4526,
      "Ġtarika": 4527,
      "Ġji": 4528,
      "Ġbachchon": 4529,
      "Ġwaha": 4530,
      "Ġcontemporary": 4531,
      "Ġsochta": 4532,
      "Ġskin": 4533,
      "Ġred": 4534,
      "Ġnetworking": 4535,
      "Ġsociety": 4536,
      "Ġmaar": 4537,
      "Ġskill": 4538,
      "jaise": 4539,
      "Ġvege": 4540,
      "oting": 4541,
      "Ġbadhti": 4542,
      "Ġview": 4543,
      "Ġjeeta": 4544,
      "breaking": 4545,
      "Ġprin": 4546,
      "Ġaasan": 4547,
      "Ġrisky": 4548,
      "Ġguilty": 4549,
      "Ġcreat": 4550,
      "Ġlikho": 4551,
      "Ġexpectations": 4552,
      "Ġbrands": 4553,
      "sahi": 4554,
      "anti": 4555,
      "Ġbeneficial": 4556,
      "yaan": 4557,
      "Ġguide": 4558,
      "Ġsituations": 4559,
      "ĠExp": 4560,
      "ĠAma": 4561,
      "Ġopin": 4562,
      "Ġobvious": 4563,
      "Ġhal": 4564,
      "ctors": 4565,
      "Ġshoes": 4566,
      "ham": 4567,
      "mun": 4568,
      "urna": 4569,
      "Ġsmell": 4570,
      "Ġseen": 4571,
      "ĠBengal": 4572,
      "ĠHalanki": 4573,
      "Ġimplement": 4574,
      "ancing": 4575,
      "Ġsunna": 4576,
      "Ġ2019": 4577,
      "ĠChalo": 4578,
      "Ġemplo": 4579,
      "Ġexhibition": 4580,
      "cket": 4581,
      "Ġbought": 4582,
      "Ġmana": 4583,
      "lim": 4584,
      "Ġstuck": 4585,
      "aap": 4586,
      "Ġlap": 4587,
      "ayengi": 4588,
      "Ġmausam": 4589,
      "ĠRavi": 4590,
      "Ġdhund": 4591,
      "mers": 4592,
      "Ġaajkal": 4593,
      "Ġx": 4594,
      "Ġkarunga": 4595,
      "Ġsolar": 4596,
      "St": 4597,
      "ĠJohn": 4598,
      "Ġliterally": 4599,
      "got": 4600,
      "gency": 4601,
      "hav": 4602,
      "Ġgaana": 4603,
      "Ġgroups": 4604,
      "Ġincredible": 4605,
      "Ġkaunsi": 4606,
      "Ġdirection": 4607,
      "Ġmountains": 4608,
      "hara": 4609,
      "ĠPlease": 4610,
      "Ġclarity": 4611,
      "Ġvish": 4612,
      "Ġworked": 4613,
      "hup": 4614,
      "Ġbeti": 4615,
      "Ġhang": 4616,
      "read": 4617,
      "ĠMed": 4618,
      "ĠDil": 4619,
      "Ġbolna": 4620,
      "bilities": 4621,
      "Ġstructure": 4622,
      "hiya": 4623,
      "urope": 4624,
      "Ġjobs": 4625,
      "Ġproperly": 4626,
      "Ġtit": 4627,
      "Ġlay": 4628,
      "ĠHis": 4629,
      "mpions": 4630,
      "Ġdiscussions": 4631,
      "Ġyatra": 4632,
      "Ġton": 4633,
      "Ġcli": 4634,
      "Ġleave": 4635,
      "Ġknown": 4636,
      "Ġguilt": 4637,
      "Ġchicken": 4638,
      "Ġimpressive": 4639,
      "crip": 4640,
      "rast": 4641,
      "Ġfloor": 4642,
      "Ġasking": 4643,
      "asi": 4644,
      "aksh": 4645,
      "Ġvibrant": 4646,
      "Ġtaur": 4647,
      "Ġ**": 4648,
      "Ġ```": 4649,
      "ĠWas": 4650,
      "Ġlovely": 4651,
      "ĠChal": 4652,
      "ining": 4653,
      "Ġjeete": 4654,
      "ching": 4655,
      "Ġchaat": 4656,
      "Ġvariety": 4657,
      "ĠTelugu": 4658,
      "ummy": 4659,
      "Ġaapki": 4660,
      "Ġclothes": 4661,
      "Ġfront": 4662,
      "Ġsunset": 4663,
      "Ġappe": 4664,
      "anger": 4665,
      "Ġdouble": 4666,
      "Ġing": 4667,
      "ĠCho": 4668,
      "Ġrush": 4669,
      "Ġpoora": 4670,
      "bi": 4671,
      "Ġcozy": 4672,
      "Ġmindful": 4673,
      "Ġtickets": 4674,
      "Ġai": 4675,
      "Ġfra": 4676,
      "Ġnovel": 4677,
      "Ġparties": 4678,
      "Ġincome": 4679,
      "Ġkahaan": 4680,
      "alore": 4681,
      "Dekh": 4682,
      "Ġeat": 4683,
      "Ġbanayi": 4684,
      "Ġsweets": 4685,
      "paas": 4686,
      "cember": 4687,
      "Ġencour": 4688,
      "atar": 4689,
      "Ġ50": 4690,
      "Ġhalf": 4691,
      "atic": 4692,
      "Ġtumse": 4693,
      "urous": 4694,
      "Ġchecked": 4695,
      "Ġstorytelling": 4696,
      "Ġada": 4697,
      "Ġinternet": 4698,
      "Ġproduce": 4699,
      "Ġkhubs": 4700,
      "Ġsheher": 4701,
      "Ġparivaar": 4702,
      "Ġliterature": 4703,
      "Ġpita": 4704,
      "ĠKahan": 4705,
      "Ġwindow": 4706,
      "ĠAsi": 4707,
      "Ġkaunse": 4708,
      "Thank": 4709,
      "Ġsapne": 4710,
      "Ġsabzi": 4711,
      "Ġlaunch": 4712,
      "henna": 4713,
      "Ġemer": 4714,
      "Ġcapture": 4715,
      "'?": 4716,
      "Ġsang": 4717,
      "Ġkehti": 4718,
      "Ġticket": 4719,
      "Ġbon": 4720,
      "Ġpehn": 4721,
      "Ġpreparation": 4722,
      "ĠMere": 4723,
      "ĠMera": 4724,
      "On": 4725,
      "llig": 4726,
      "Ġvalu": 4727,
      "Ġturn": 4728,
      "chite": 4729,
      "Ġsafar": 4730,
      "Ġboost": 4731,
      "Ġiti": 4732,
      "hila": 4733,
      "rew": 4734,
      "Ġbasically": 4735,
      "Ġinclud": 4736,
      "til": 4737,
      "Ġdirector": 4738,
      "ex": 4739,
      "eti": 4740,
      "Ġengineering": 4741,
      "ening": 4742,
      "Ġasar": 4743,
      "Ġbusinesses": 4744,
      "Ġaadmi": 4745,
      "Ġcancel": 4746,
      "Ġarticle": 4747,
      "Ġvibhinn": 4748,
      "Ġtourna": 4749,
      "Ġalbum": 4750,
      "Ġheartbreaking": 4751,
      "cto": 4752,
      "Ġchhota": 4753,
      "ĠTime": 4754,
      "Ġavoid": 4755,
      "Ġboyfriend": 4756,
      "jit": 4757,
      "ler": 4758,
      "Ġterm": 4759,
      "Ġground": 4760,
      "daan": 4761,
      "kuch": 4762,
      "Ġseed": 4763,
      "Ġpaint": 4764,
      "Ġsister": 4765,
      "Ġyouth": 4766,
      "hange": 4767,
      "Ġaward": 4768,
      "ĠLong": 4769,
      "ĠSounds": 4770,
      "Ġadventurous": 4771,
      "Ġjawaab": 4772,
      "ctober": 4773,
      "lines": 4774,
      "Ġalava": 4775,
      "aane": 4776,
      "Ġoper": 4777,
      "Ġchalein": 4778,
      "Ġsafal": 4779,
      "Ġprivacy": 4780,
      "Ġzaruri": 4781,
      "duce": 4782,
      "Ġbatana": 4783,
      "irm": 4784,
      "Ġfear": 4785,
      "log": 4786,
      "redients": 4787,
      "alog": 4788,
      "ĠApne": 4789,
      "Ġhealthcare": 4790,
      "Ġlikhi": 4791,
      "Ġcomplic": 4792,
      "ĠMiss": 4793,
      "Ġopportunity": 4794,
      "pite": 4795,
      "koon": 4796,
      "Who": 4797,
      "iture": 4798,
      "Ġapplic": 4799,
      "Ġhappening": 4800,
      "urg": 4801,
      "Ġseems": 4802,
      "gic": 4803,
      "ĠOne": 4804,
      "Ġactivity": 4805,
      "Ġdiversity": 4806,
      "Ġache": 4807,
      "Ġstream": 4808,
      "Ġbot": 4809,
      "Ġanniversary": 4810,
      "Ġplayers": 4811,
      "Ġghan": 4812,
      "Ġrent": 4813,
      "Beta": 4814,
      "ier": 4815,
      "ĠWest": 4816,
      "Ġresponse": 4817,
      "Ġlocation": 4818,
      "Ġocc": 4819,
      "Ġsamaj": 4820,
      "erson": 4821,
      "50": 4822,
      "Ġpha": 4823,
      "Ġsamband": 4824,
      "Ġmahatvapurna": 4825,
      "Ġentertainment": 4826,
      "based": 4827,
      "Ġinterests": 4828,
      "Ġbackg": 4829,
      "Ġmedical": 4830,
      "Ġbaithe": 4831,
      "lying": 4832,
      "ĠAss": 4833,
      "pril": 4834,
      "Ġkhelna": 4835,
      "Ġmahatvapurn": 4836,
      "Ġimmedi": 4837,
      "Ġlatest": 4838,
      "oman": 4839,
      "ĠLa": 4840,
      "onely": 4841,
      "Ġsukoon": 4842,
      "Ġsick": 4843,
      "ilway": 4844,
      "Ġraho": 4845,
      "Ġbound": 4846,
      "fying": 4847,
      "ĠDecember": 4848,
      "Ġexperiment": 4849,
      "Ġconvenient": 4850,
      "ĠSat": 4851,
      "Ġrealize": 4852,
      "absolutely": 4853,
      "Ġgrocery": 4854,
      "Ġbehavior": 4855,
      "Ġclaim": 4856,
      "ĠAug": 4857,
      "Ġtrendy": 4858,
      "Ġinspiring": 4859,
      "Ġsection": 4860,
      "urniture": 4861,
      "Ġretreat": 4862,
      "Ġnegative": 4863,
      "Ġcrypt": 4864,
      "Ġshowcase": 4865,
      "ky": 4866,
      "Ã©": 4867,
      "antly": 4868,
      "Ġhumesha": 4869,
      "Ġobviously": 4870,
      "Ġcuri": 4871,
      "Ġteachers": 4872,
      "Ġtera": 4873,
      "Be": 4874,
      "Ġ11": 4875,
      "Ġlooked": 4876,
      "Ġeating": 4877,
      "Ġyeah": 4878,
      "Ġtax": 4879,
      "Bo": 4880,
      "tling": 4881,
      "pany": 4882,
      "Ġprotect": 4883,
      "Ġtasks": 4884,
      "Ġcamera": 4885,
      "Ġprakar": 4886,
      "Ġmillion": 4887,
      "ditional": 4888,
      "ĠIns": 4889,
      "bad": 4890,
      "Ġant": 4891,
      "Ġelements": 4892,
      "Ġbh": 4893,
      "Ġdemand": 4894,
      "Ġhighlight": 4895,
      "à¤ķ": 4896,
      "Ġprobably": 4897,
      "One": 4898,
      "Ġsearch": 4899,
      "ĠBar": 4900,
      "Ġrules": 4901,
      "Ġbathroom": 4902,
      "Ġinvite": 4903,
      "Ġsize": 4904,
      "Ġ0": 4905,
      "ĠOctober": 4906,
      "Ġremin": 4907,
      "Ġchahe": 4908,
      "ides": 4909,
      "Ġpiece": 4910,
      "inks": 4911,
      "Ġpolitical": 4912,
      "Ġkhilaf": 4913,
      "harma": 4914,
      "tead": 4915,
      "Ġjourn": 4916,
      "Ġholid": 4917,
      "Ġsucks": 4918,
      "Ġweb": 4919,
      "Ġdistance": 4920,
      "Ġafford": 4921,
      "Ġlonely": 4922,
      "ĠBi": 4923,
      "Ġevening": 4924,
      "Ġreading": 4925,
      "Ġindivid": 4926,
      "Ġfurniture": 4927,
      "Ġbanati": 4928,
      "Ġhuye": 4929,
      "Ġsuppor": 4930,
      "Ġinfluen": 4931,
      "ator": 4932,
      "rought": 4933,
      "ĠInter": 4934,
      "Just": 4935,
      "Ġ&": 4936,
      "Ġbummer": 4937,
      "Ġmember": 4938,
      "vember": 4939,
      "lies": 4940,
      "Ġpaya": 4941,
      "Ġaffect": 4942,
      "aign": 4943,
      "Ġproduction": 4944,
      "Ġinfluence": 4945,
      "Ġtree": 4946,
      "Ġsunte": 4947,
      "An": 4948,
      "Ġlok": 4949,
      "Ġcourage": 4950,
      "Ġsuggestion": 4951,
      "Mere": 4952,
      "ĠApril": 4953,
      "Ġaccom": 4954,
      "Ġcharge": 4955,
      "Ġcleaning": 4956,
      "ĠTake": 4957,
      "Ġanti": 4958,
      "Go": 4959,
      "Ġstatement": 4960,
      "Ġflavors": 4961,
      "anya": 4962,
      "tiya": 4963,
      "Ġcous": 4964,
      "Ġarchite": 4965,
      "Ġlayak": 4966,
      "Ġreaction": 4967,
      "iddle": 4968,
      "dio": 4969,
      "Ġgoes": 4970,
      "tables": 4971,
      "Ġconfused": 4972,
      "Ġdark": 4973,
      "ĠSelf": 4974,
      "ween": 4975,
      "Ġsh": 4976,
      "Ġword": 4977,
      "à¥į": 4978,
      "Ġspa": 4979,
      "mission": 4980,
      "Ġfruits": 4981,
      "Ġparent": 4982,
      "onna": 4983,
      "Ġkhoo": 4984,
      "uts": 4985,
      "Ġperhaps": 4986,
      "cin": 4987,
      "Ġisko": 4988,
      "ĠPat": 4989,
      "tember": 4990,
      "Ġrace": 4991,
      "Ġpadhne": 4992,
      "hicles": 4993,
      "Ġsoftware": 4994,
      "adu": 4995,
      "Ġdialog": 4996,
      "under": 4997,
      "ĠEurope": 4998,
      "Ġadhya": 4999,
      "rance": 5000,
      "Ġloved": 5001,
      "active": 5002,
      "Ġrepresent": 5003,
      "Ġ13": 5004,
      "Ġsever": 5005,
      "Ġchanne": 5006,
      "ĠSep": 5007,
      "ener": 5008,
      "Ġconfusion": 5009,
      ".'": 5010,
      "Ġhappiness": 5011,
      "ĠKaisi": 5012,
      "Ġstudies": 5013,
      "mart": 5014,
      "Ġshuruaat": 5015,
      "Ġrelaxing": 5016,
      "Ne": 5017,
      "oci": 5018,
      "Ġlaugh": 5019,
      "Ġvehicles": 5020,
      "Ġhesitate": 5021,
      "Ġpani": 5022,
      "aste": 5023,
      "ring": 5024,
      "Ġva": 5025,
      "Ġgeneration": 5026,
      "jeeb": 5027,
      "Ġcode": 5028,
      "Ġcompare": 5029,
      "esting": 5030,
      "ĠNovember": 5031,
      "Ġprat": 5032,
      "Ġjudge": 5033,
      "ests": 5034,
      "Ġcustomers": 5035,
      "asure": 5036,
      "Ġyahaan": 5037,
      "soon": 5038,
      "Ġ2018": 5039,
      "?'": 5040,
      "âĢĵ": 5041,
      "Ġspicy": 5042,
      "lation": 5043,
      "Ġge": 5044,
      "Ġraise": 5045,
      "ired": 5046,
      "Ġmeaning": 5047,
      "rup": 5048,
      "Ġbecome": 5049,
      "Ġchhup": 5050,
      "Ġrajne": 5051,
      "Ġrock": 5052,
      "Ġgod": 5053,
      "Ġachievements": 5054,
      "Ġtherapy": 5055,
      "ĠMarch": 5056,
      "Ġplanned": 5057,
      "Ġsentence": 5058,
      "Ġthrow": 5059,
      "ero": 5060,
      "ĠLosing": 5061,
      "Ġcompar": 5062,
      "ĠRemember": 5063,
      "bas": 5064,
      "Ġlim": 5065,
      "ĠDis": 5066,
      "kaar": 5067,
      "Ġchem": 5068,
      "Ġpets": 5069,
      "Ġdamage": 5070,
      "Bata": 5071,
      "Ġsamjho": 5072,
      "ĠSho": 5073,
      "ĠAk": 5074,
      "Ġchota": 5075,
      "hennai": 5076,
      "Ġajeeb": 5077,
      "Ġmethods": 5078,
      "Ġsnow": 5079,
      "Ġcondition": 5080,
      "los": 5081,
      "Ġexpenses": 5082,
      "Ġlux": 5083,
      "ĠAugust": 5084,
      "Koi": 5085,
      "erry": 5086,
      "Ġrate": 5087,
      "Ġnote": 5088,
      "Ġpooch": 5089,
      "gle": 5090,
      "pad": 5091,
      "ĠSach": 5092,
      "ĠBy": 5093,
      "Ġnetwork": 5094,
      "Ġrangoli": 5095,
      "don": 5096,
      "Ġuser": 5097,
      "ĠTh": 5098,
      "Ġwestern": 5099,
      "ervation": 5100,
      "erti": 5101,
      "Ġbetween": 5102,
      "Ġmagical": 5103,
      "Ġpolitics": 5104,
      "Ġ25": 5105,
      "Ġjisne": 5106,
      "cu": 5107,
      "ĠOn": 5108,
      "Ġdiscipline": 5109,
      ").": 5110,
      "Ġcoo": 5111,
      "Ġcir": 5112,
      "ĠCity": 5113,
      "Ġanus": 5114,
      "Ġintellig": 5115,
      "Ġcasual": 5116,
      "Ġknowing": 5117,
      "ivity": 5118,
      "orate": 5119,
      "icious": 5120,
      "Ġwanna": 5121,
      "Ġobs": 5122,
      "Ġbreaks": 5123,
      "ange": 5124,
      "anced": 5125,
      "ĠPol": 5126,
      "exactly": 5127,
      "board": 5128,
      "Ġdiwali": 5129,
      "Ġintezaar": 5130,
      "cover": 5131,
      "Ġfixed": 5132,
      "Ġvegetables": 5133,
      "ĠIm": 5134,
      "Ġinnovation": 5135,
      "ĠBangalore": 5136,
      "Ġbaaki": 5137,
      "Ġunhonne": 5138,
      "Ġtelev": 5139,
      "ĠGu": 5140,
      "Ġâ": 5141,
      "Ġlab": 5142,
      "Ġyes": 5143,
      "ĠKumar": 5144,
      "Ġingredients": 5145,
      "Ġkap": 5146,
      "Ġpakka": 5147,
      "rime": 5148,
      "Ġchoices": 5149,
      "Ġsaam": 5150,
      "ĠSomething": 5151,
      "Ġcampaign": 5152,
      "Ġmachine": 5153,
      "Ġlaptop": 5154,
      "ĠSeptember": 5155,
      "Ġgha": 5156,
      "ĠCh": 5157,
      "Ġshanti": 5158,
      "book": 5159,
      "gn": 5160,
      "elling": 5161,
      "Ġpyaara": 5162,
      "ĠChand": 5163,
      "Ġcart": 5164,
      "Ġmahila": 5165,
      "Ġforgot": 5166,
      "Ġmoved": 5167,
      "Ġhamari": 5168,
      "ĠPerhaps": 5169,
      "ĠCent": 5170,
      "Ġutna": 5171,
      "Ġkhoobs": 5172,
      "omb": 5173,
      "ĠHam": 5174,
      "char": 5175,
      "ĠAmazon": 5176,
      "Ġconnections": 5177,
      "Ġbudgeting": 5178,
      "Ġpaid": 5179,
      "dan": 5180,
      "Ġcong": 5181,
      "tives": 5182,
      "Ġchote": 5183,
      "Ġnaamak": 5184,
      "Ġhospital": 5185,
      "Ġ100": 5186,
      "ĠJune": 5187,
      "Ġrelated": 5188,
      "Ġswimming": 5189,
      "tagram": 5190,
      "Ġreward": 5191,
      "ĠRohit": 5192,
      "Ġtrips": 5193,
      "Ġpahun": 5194,
      "Ġgaram": 5195,
      "prene": 5196,
      "Ġcomplicated": 5197,
      "Ġpred": 5198,
      "Ġproperty": 5199,
      "Ġakele": 5200,
      "rate": 5201,
      "Ġdess": 5202,
      "Ġupyog": 5203,
      "Ġgenuinely": 5204,
      "ĠSuper": 5205,
      "ĠNetflix": 5206,
      "Ac": 5207,
      "reprene": 5208,
      "Ġenjo": 5209,
      "Ġsalad": 5210,
      "zz": 5211,
      "Ġcau": 5212,
      "coming": 5213,
      "Great": 5214,
      "Ġten": 5215,
      "Ġbrought": 5216,
      "Ġgeh": 5217,
      "ĠTrust": 5218,
      "Ġacknowled": 5219,
      "Ġbho": 5220,
      "Ġchut": 5221,
      "Ġallow": 5222,
      "Ġrepair": 5223,
      "Ġcafe": 5224,
      "ĠAm": 5225,
      "Ġcreep": 5226,
      "Rohan": 5227,
      "Ġanimals": 5228,
      "Ġdiverse": 5229,
      "Ġnumbers": 5230,
      "Ġcolorful": 5231,
      "Ġ2014": 5232,
      "Ġtujhse": 5233,
      "Ġaasaan": 5234,
      "play": 5235,
      "Ġanaly": 5236,
      "Ġoil": 5237,
      "Ġmeetings": 5238,
      "cul": 5239,
      "Ġasked": 5240,
      "Ġindependence": 5241,
      "ĠJanuary": 5242,
      "Ġtelevision": 5243,
      "thon": 5244,
      "ustle": 5245,
      "Ġpath": 5246,
      "Ġstra": 5247,
      "orp": 5248,
      "Ġsamajhte": 5249,
      "Ġsingle": 5250,
      "Ġaak": 5251,
      "Ġfriendly": 5252,
      "AI": 5253,
      "Ġful": 5254,
      "Ġsaara": 5255,
      "ĠKab": 5256,
      "Ġzone": 5257,
      "Ġpractices": 5258,
      "Ġ2022": 5259,
      "lor": 5260,
      "Ġtight": 5261,
      "ĠKrish": 5262,
      "Kal": 5263,
      "hical": 5264,
      "Ġghum": 5265,
      "Ġviews": 5266,
      "Ġnostalgia": 5267,
      "Ġmagic": 5268,
      "Ġhasi": 5269,
      "Ġghat": 5270,
      "actions": 5271,
      "Ġsolid": 5272,
      "Ġstrategies": 5273,
      "rics": 5274,
      "Ġrelaxed": 5275,
      "Ġprograms": 5276,
      "Ġshot": 5277,
      "Ġsmile": 5278,
      "Ġlooks": 5279,
      "Ġdestination": 5280,
      "Ġcomputer": 5281,
      "iche": 5282,
      "Ġbaseball": 5283,
      "\",": 5284,
      "gor": 5285,
      "hari": 5286,
      "Ġah": 5287,
      "ĠDes": 5288,
      "Ġirritating": 5289,
      "bile": 5290,
      "Ġwall": 5291,
      "tak": 5292,
      "Ġblend": 5293,
      "Ġsusp": 5294,
      "bu": 5295,
      "ĠNorth": 5296,
      "true": 5297,
      "Ġhelped": 5298,
      "Ġyahi": 5299,
      "Ġhuh": 5300,
      "Ġdistractions": 5301,
      "ĠLagta": 5302,
      "Ġweak": 5303,
      "Ġexchange": 5304,
      "Ġdistract": 5305,
      "ouble": 5306,
      "Ġheavy": 5307,
      "ĠYork": 5308,
      "Ġcultures": 5309,
      "Ġlar": 5310,
      "Ġkisne": 5311,
      "Ġbehind": 5312,
      "Ġgadget": 5313,
      "ilar": 5314,
      "Ġpush": 5315,
      "Ġbeaches": 5316,
      "Ġnotes": 5317,
      "Ġfish": 5318,
      "Ġretire": 5319,
      "Maa": 5320,
      "Ġoverwhelmed": 5321,
      "Ġrefreshing": 5322,
      "Ġjaisi": 5323,
      "ora": 5324,
      "ĠGan": 5325,
      "Ġafra": 5326,
      "à¥Ī": 5327,
      "Ġmajb": 5328,
      "ĠUt": 5329,
      "Ġtowards": 5330,
      "Ġchali": 5331,
      "Ġoutfit": 5332,
      "Ġangry": 5333,
      "ĠChina": 5334,
      "Ġbutter": 5335,
      "Ġà¤¸": 5336,
      "Ġblock": 5337,
      "cepts": 5338,
      "Ġwohi": 5339,
      "Ġoffici": 5340,
      "Ġencourage": 5341,
      "oke": 5342,
      "Ġserve": 5343,
      "erman": 5344,
      "tenance": 5345,
      "Ġwhe": 5346,
      "Ġpattern": 5347,
      "Ġgiving": 5348,
      "Ġbadhegi": 5349,
      "Ġwomen": 5350,
      "Ġsuno": 5351,
      "ogether": 5352,
      "ived": 5353,
      "Ġsharing": 5354,
      "Ġcow": 5355,
      "atak": 5356,
      "Ġhectic": 5357,
      "Ġhandmade": 5358,
      "Ġuntil": 5359,
      "Ġaapka": 5360,
      "Ġpeeche": 5361,
      "Ġafraid": 5362,
      "that": 5363,
      "istry": 5364,
      "Ġnervousness": 5365,
      "Ġsochte": 5366,
      "ĠChennai": 5367,
      "Ġfocusing": 5368,
      "Ġkhaana": 5369,
      "asy": 5370,
      "olk": 5371,
      "apan": 5372,
      "ĠHy": 5373,
      "Ġended": 5374,
      "yari": 5375,
      "ĠSte": 5376,
      "ĠEast": 5377,
      "Ġoriginal": 5378,
      "Ġvaluable": 5379,
      "Ġinstall": 5380,
      "hra": 5381,
      "Ġgross": 5382,
      "Ġinj": 5383,
      "Ġjaayenge": 5384,
      "Ġgho": 5385,
      "Ġbak": 5386,
      "Ġbanayenge": 5387,
      "Ġmother": 5388,
      "Ġsens": 5389,
      "ustrali": 5390,
      "oge": 5391,
      "Ġsqu": 5392,
      "Ġball": 5393,
      "Ġanimal": 5394,
      "Ġcalls": 5395,
      "bon": 5396,
      "more": 5397,
      "Ġlegal": 5398,
      "Ġchalna": 5399,
      "Ġvoice": 5400,
      "Ġepis": 5401,
      "Ġdoubt": 5402,
      "priya": 5403,
      "haas": 5404,
      "Ġcuisine": 5405,
      "Ġintro": 5406,
      "omato": 5407,
      "ungle": 5408,
      "Ġ2016": 5409,
      "Ġamb": 5410,
      "eche": 5411,
      "Ġ#": 5412,
      "Ġitself": 5413,
      "ashtriya": 5414,
      "ondon": 5415,
      "jahan": 5416,
      "urti": 5417,
      "Ġsamasya": 5418,
      "Ġgonna": 5419,
      "ujar": 5420,
      "Ġkitab": 5421,
      "erves": 5422,
      "Ġinitial": 5423,
      "gat": 5424,
      "ases": 5425,
      "unk": 5426,
      "ĠWhen": 5427,
      "Ġmembers": 5428,
      "yu": 5429,
      "ums": 5430,
      "Ġdosto": 5431,
      "sel": 5432,
      "Ġbech": 5433,
      "Ġaspect": 5434,
      "Ġexpecting": 5435,
      "Ġimmediately": 5436,
      "Ġkarya": 5437,
      "Ġconnected": 5438,
      "Ġalright": 5439,
      "Ġinvolved": 5440,
      "bby": 5441,
      "gu": 5442,
      "Ġperi": 5443,
      "Ġkahin": 5444,
      "Ġsurprised": 5445,
      "cription": 5446,
      "yer": 5447,
      "Ġcars": 5448,
      "Ġhot": 5449,
      "antri": 5450,
      "Ġcoding": 5451,
      "Ġ2017": 5452,
      "ĠCompany": 5453,
      "Ġluxury": 5454,
      "ras": 5455,
      "illed": 5456,
      "verage": 5457,
      "omin": 5458,
      "ĠTha": 5459,
      "ites": 5460,
      "arsha": 5461,
      "Ġmonthly": 5462,
      "ĠIsme": 5463,
      "Ġdikhana": 5464,
      "fast": 5465,
      "ĠX": 5466,
      "Ġmaana": 5467,
      "Ġboundaries": 5468,
      "itar": 5469,
      "Ġsupportive": 5470,
      "dhi": 5471,
      "real": 5472,
      "Ġlam": 5473,
      "Ġmoving": 5474,
      "ĠJuly": 5475,
      "Ġjinhone": 5476,
      "Ġemergency": 5477,
      "Ġappli": 5478,
      "Ġguzar": 5479,
      "Ġrefund": 5480,
      "Zar": 5481,
      "forget": 5482,
      "Ġdriver": 5483,
      "Ġkharidna": 5484,
      "Maine": 5485,
      "Nah": 5486,
      "Ġfinish": 5487,
      "Ġtemper": 5488,
      "Ġruin": 5489,
      "Ġlegend": 5490,
      "Ġcomes": 5491,
      "Ġflavor": 5492,
      "Ġversion": 5493,
      "Ġselect": 5494,
      "Ġsystems": 5495,
      "----": 5496,
      "Ġdum": 5497,
      "itivity": 5498,
      "Ġshock": 5499,
      "Ġentreprene": 5500,
      "Ġclearly": 5501,
      "Ġmand": 5502,
      "Ġassistant": 5503,
      "lam": 5504,
      "Ġgarmi": 5505,
      "Ġacross": 5506,
      "ĠRajast": 5507,
      "Don": 5508,
      "Mera": 5509,
      "gs": 5510,
      "agine": 5511,
      "Ġdekhti": 5512,
      "Ġinstru": 5513,
      "ĠBeach": 5514,
      "Ġsarkar": 5515,
      "Ġregional": 5516,
      "ders": 5517,
      "Awesome": 5518,
      "Ġcontribu": 5519,
      "Ġdharm": 5520,
      "Ġsimilar": 5521,
      "Ġmasala": 5522,
      "Ġpieces": 5523,
      "avya": 5524,
      "Ġdoll": 5525,
      "Ġpehen": 5526,
      "Ġuplab": 5527,
      "Ġfascin": 5528,
      "Ġmission": 5529,
      "Ġrajya": 5530,
      "ox": 5531,
      "Ġaccept": 5532,
      "Ġvarious": 5533,
      "Ġident": 5534,
      "Ġwel": 5535,
      "leased": 5536,
      "icies": 5537,
      "Ġruk": 5538,
      "Ġlighting": 5539,
      "Ġrange": 5540,
      "Ġgeta": 5541,
      "Ġfrustrated": 5542,
      "Ġconversations": 5543,
      "Ġdisappointed": 5544,
      "Ġtournament": 5545,
      "olve": 5546,
      "Ġresponsible": 5547,
      "ĠSub": 5548,
      "Ġconcepts": 5549,
      "ĠBaad": 5550,
      "Ġromance": 5551,
      ":**": 5552,
      "Ġaaram": 5553,
      "istan": 5554,
      "Ġbani": 5555,
      "imple": 5556,
      "Ġinteg": 5557,
      "Ġ192": 5558,
      "Ġpersonalized": 5559,
      "Ġstocks": 5560,
      "Ġkhat": 5561,
      "Ġhair": 5562,
      "Ġnikalna": 5563,
      "Ġstatus": 5564,
      "Ġbills": 5565,
      "unday": 5566,
      "Ġworse": 5567,
      "Ġsubs": 5568,
      "avid": 5569,
      "ĠEverything": 5570,
      "Ġsuddenly": 5571,
      "fire": 5572,
      "Ġmechan": 5573,
      "oute": 5574,
      "ups": 5575,
      "Ġthree": 5576,
      "Ġbadhiya": 5577,
      "comfortable": 5578,
      "ĠBl": 5579,
      "laya": 5580,
      "Ġmaintenance": 5581,
      "Ġchecking": 5582,
      "pose": 5583,
      "irs": 5584,
      "Mo": 5585,
      "ichar": 5586,
      "idhan": 5587,
      "!'": 5588,
      "cling": 5589,
      "Ġdepth": 5590,
      "wise": 5591,
      "Ġpolicies": 5592,
      "Ġtelling": 5593,
      "forgettable": 5594,
      "hana": 5595,
      "Ġvist": 5596,
      "inked": 5597,
      "estival": 5598,
      "Ġincrease": 5599,
      "Ġcop": 5600,
      "Ġsettle": 5601,
      "Ġ2021": 5602,
      "Ġmention": 5603,
      "kart": 5604,
      "udh": 5605,
      "Ġinstead": 5606,
      "Tube": 5607,
      "Ġgetaway": 5608,
      "Us": 5609,
      "Ġactor": 5610,
      "ĠInst": 5611,
      "Ġcharity": 5612,
      "ners": 5613,
      "ĠKing": 5614,
      "ĠHappens": 5615,
      "Ġfell": 5616,
      "Ġnav": 5617,
      "Ġcousin": 5618,
      "Dekho": 5619,
      "Ġbhum": 5620,
      "ĠGhar": 5621,
      "Ġages": 5622,
      "Ġpolicy": 5623,
      "ĠBab": 5624,
      "ĠJaise": 5625,
      "Ġcareful": 5626,
      "head": 5627,
      "Ġeh": 5628,
      "hones": 5629,
      "Ġyogdan": 5630,
      "lipkart": 5631,
      "Ġcaught": 5632,
      "Ġclassical": 5633,
      "Ġcowork": 5634,
      "Ġcher": 5635,
      "Ġgoodness": 5636,
      "Ġcold": 5637,
      "Ġsetting": 5638,
      "Ġbadhane": 5639,
      "Ġoverwhelming": 5640,
      "Seriously": 5641,
      "dam": 5642,
      "ĠLast": 5643,
      "Ġkhushiyon": 5644,
      "Ġautom": 5645,
      "Ġcook": 5646,
      "ysis": 5647,
      "ĠII": 5648,
      "Good": 5649,
      "Wo": 5650,
      "Ġdue": 5651,
      "ĠTech": 5652,
      "woh": 5653,
      "tage": 5654,
      "Ġlimit": 5655,
      "Ġbula": 5656,
      "ĠAmerica": 5657,
      "ĠSur": 5658,
      "Ġblack": 5659,
      "Ġsolu": 5660,
      "Ġworries": 5661,
      "anda": 5662,
      "ĠEngine": 5663,
      "raj": 5664,
      "Ġunforgettable": 5665,
      "Ġ2020": 5666,
      "Ġakela": 5667,
      "15": 5668,
      "200": 5669,
      "Agar": 5670,
      "Ġlives": 5671,
      "vert": 5672,
      "Ġshel": 5673,
      "ĠDono": 5674,
      "Ġpradan": 5675,
      "mary": 5676,
      "Ġum": 5677,
      "Ġpus": 5678,
      "ĠCl": 5679,
      "ĠSec": 5680,
      "Ġbhumika": 5681,
      "Ġdu": 5682,
      "unning": 5683,
      "essor": 5684,
      "Ġ24": 5685,
      "rench": 5686,
      "Ġdreams": 5687,
      "ano": 5688,
      "ictable": 5689,
      "night": 5690,
      "bruary": 5691,
      "Ġ2015": 5692,
      "usted": 5693,
      "Ġnoise": 5694,
      "rown": 5695,
      "Ġsolutions": 5696,
      "Ġtor": 5697,
      "Ġshaken": 5698,
      "Ġdisturb": 5699,
      "She": 5700,
      "Tho": 5701,
      "Ġski": 5702,
      "Ġjaha": 5703,
      "Ġuncomfortable": 5704,
      "lowing": 5705,
      "olkata": 5706,
      "Papa": 5707,
      "itute": 5708,
      "ĠAise": 5709,
      "ĠChristmas": 5710,
      "Ġtut": 5711,
      "Ġrice": 5712,
      "Ġreliable": 5713,
      "jis": 5714,
      "hare": 5715,
      "Ġkarle": 5716,
      "Ġhongi": 5717,
      "Ġstyles": 5718,
      "Ġfur": 5719,
      "ĠNa": 5720,
      "Ġpich": 5721,
      "Ġempty": 5722,
      "Ġbackground": 5723,
      "Ġidentity": 5724,
      "entist": 5725,
      "ĠMin": 5726,
      "ĠYouTube": 5727,
      "Ġyogdaan": 5728,
      "lection": 5729,
      "Ġbhari": 5730,
      "Ġthanks": 5731,
      "Ġclimate": 5732,
      "Ġlokpriya": 5733,
      "ĠSri": 5734,
      "Ġlosing": 5735,
      "ĠAnything": 5736,
      "Ġneeche": 5737,
      "ender": 5738,
      "Ġtopics": 5739,
      "Sounds": 5740,
      "Ġrob": 5741,
      "Ġrefer": 5742,
      "Ġbenefit": 5743,
      "Oye": 5744,
      "ĠĠ": 5745,
      "Ġdating": 5746,
      "Ġdeter": 5747,
      "Ġgest": 5748,
      "Ġtalented": 5749,
      "Ġunset": 5750,
      "ĠBata": 5751,
      "Ġtechnique": 5752,
      "Ġer": 5753,
      "Ġfather": 5754,
      "ĠAustrali": 5755,
      "Ġdiv": 5756,
      "à¤¸": 5757,
      "Ġmindfulness": 5758,
      "ording": 5759,
      "Ġkeeps": 5760,
      "Ġadvance": 5761,
      "Ġflowers": 5762,
      "Ġbadhega": 5763,
      "Ġseveral": 5764,
      "ĠKaisa": 5765,
      "Ġachievement": 5766,
      "Ġstorm": 5767,
      "ctually": 5768,
      "ĠKisi": 5769,
      "Ġstability": 5770,
      "Lekin": 5771,
      "ĠBra": 5772,
      "ĠBet": 5773,
      "Ġabhin": 5774,
      "Ġcountries": 5775,
      "Ġkharcha": 5776,
      "rd": 5777,
      "Ġhat": 5778,
      "Ġinsaan": 5779,
      "Ġeconomy": 5780,
      "Ġapologi": 5781,
      "ĠKanna": 5782,
      "Ġsugar": 5783,
      "Ġbroke": 5784,
      "arian": 5785,
      "Ġmethod": 5786,
      "ĠExpress": 5787,
      "Ġacknowledging": 5788,
      "aaz": 5789,
      "Ġsaha": 5790,
      "Ġwellness": 5791,
      "ĠNar": 5792,
      "ĠUski": 5793,
      "ĠKitne": 5794,
      "Ġnational": 5795,
      "Ġperfectly": 5796,
      "Ġchap": 5797,
      "hil": 5798,
      "Ġdeath": 5799,
      "Ġreflect": 5800,
      "Ġdiscussion": 5801,
      "uh": 5802,
      "ĠPur": 5803,
      "Ġconfirm": 5804,
      "Ġaakhir": 5805,
      "ĠPark": 5806,
      "vara": 5807,
      "ool": 5808,
      "ĠLuck": 5809,
      "18": 5810,
      "ĠFlipkart": 5811,
      "Ġwhite": 5812,
      "Ġpromise": 5813,
      "Ġacknowledge": 5814,
      "Ġprioritize": 5815,
      "Ġpurs": 5816,
      "Ġpyaari": 5817,
      "Ġchhat": 5818,
      "alous": 5819,
      "ĠKolkata": 5820,
      "Ġapartment": 5821,
      "ternational": 5822,
      "ĠFran": 5823,
      "ĠGe": 5824,
      "ĠFebruary": 5825,
      "Ġsalary": 5826,
      "thoda": 5827,
      "Ġcomparison": 5828,
      "ided": 5829,
      "ĠVish": 5830,
      "Ġcollection": 5831,
      "Ġpakad": 5832,
      "Ġdisappoint": 5833,
      "yes": 5834,
      "Ġmaterials": 5835,
      "ĠAward": 5836,
      "Ex": 5837,
      "Ġsaree": 5838,
      "ouse": 5839,
      "ĠLondon": 5840,
      "Ġpositivity": 5841,
      "Ġwildlife": 5842,
      "Ġoccas": 5843,
      "Ġdim": 5844,
      "Ġdikhaya": 5845,
      "Ġspeaking": 5846,
      "Waise": 5847,
      "Ġcreepy": 5848,
      "unty": 5849,
      "utta": 5850,
      "Ġstring": 5851,
      "Ġneighborhood": 5852,
      "Ġengaging": 5853,
      "ila": 5854,
      "ĠDist": 5855,
      "aina": 5856,
      "ives": 5857,
      "ructure": 5858,
      "urban": 5859,
      "Ġunsettling": 5860,
      "arth": 5861,
      "âĢĶ": 5862,
      "Ġcheese": 5863,
      "Ġ2011": 5864,
      "Ġcause": 5865,
      "Ġpanels": 5866,
      "Ġpareshan": 5867,
      "Ġ<": 5868,
      "yam": 5869,
      "Samajh": 5870,
      "athan": 5871,
      "Ġalong": 5872,
      "Ġborn": 5873,
      "ĠApp": 5874,
      "ĠDur": 5875,
      "mark": 5876,
      "nia": 5877,
      "Ġfriendship": 5878,
      "Ġjeetne": 5879,
      "Ġsapna": 5880,
      "Ġkeeping": 5881,
      "Ġeventually": 5882,
      "Ġstock": 5883,
      "enior": 5884,
      "Ġfiction": 5885,
      "ivil": 5886,
      "unce": 5887,
      "Ġloyal": 5888,
      "Ġjisko": 5889,
      "ino": 5890,
      "Ġbow": 5891,
      "Ġunp": 5892,
      "Ġden": 5893,
      "laint": 5894,
      "karan": 5895,
      "Ġagainst": 5896,
      "think": 5897,
      "cies": 5898,
      "Ġprak": 5899,
      "Ġling": 5900,
      "Ġgeneral": 5901,
      "Ġfancy": 5902,
      "ped": 5903,
      "Ġpric": 5904,
      "Ġhustle": 5905,
      "Ġaahe": 5906,
      "Ġspread": 5907,
      "ĠUska": 5908,
      "oogle": 5909,
      "Ġ2012": 5910,
      "Ġresponsibilities": 5911,
      "Aap": 5912,
      "Tra": 5913,
      "Ġsare": 5914,
      "aldi": 5915,
      "andom": 5916,
      "ĠGujar": 5917,
      "Ġhelpless": 5918,
      "Ġdikhane": 5919,
      "ĠHowever": 5920,
      "Ġghante": 5921,
      "Ġtemperature": 5922,
      "idents": 5923,
      "ĠBad": 5924,
      "athon": 5925,
      "cape": 5926,
      "Sab": 5927,
      "Ġusing": 5928,
      "ĠPak": 5929,
      "ĠRan": 5930,
      "ĠZomato": 5931,
      "Not": 5932,
      "Ġvet": 5933,
      "Ġsamna": 5934,
      "Ġhero": 5935,
      "Ġcrafts": 5936,
      "ĠSaath": 5937,
      "Ġdebate": 5938,
      "ĠAfter": 5939,
      "inary": 5940,
      "Ġvik": 5941,
      "raph": 5942,
      "Ġvarsh": 5943,
      "Ġputting": 5944,
      "Ġcorner": 5945,
      "Ġpanic": 5946,
      "Ġloud": 5947,
      "askar": 5948,
      "Ġperiod": 5949,
      "dom": 5950,
      "Ġtoys": 5951,
      "Ġmobile": 5952,
      "Ġshape": 5953,
      "Ġarchitecture": 5954,
      "Ġedit": 5955,
      "tel": 5956,
      "Ġdiscover": 5957,
      "Ġminimal": 5958,
      "sy": 5959,
      "Ġcash": 5960,
      "ĠSuch": 5961,
      "Ġcenter": 5962,
      "Ġhaf": 5963,
      "Ġglass": 5964,
      "Ġvah": 5965,
      "Ġpool": 5966,
      "Ġdisappointing": 5967,
      "Ġinvestments": 5968,
      "Ġthoughtful": 5969,
      "Ġimpactful": 5970,
      "ship": 5971,
      "Ġgol": 5972,
      "rict": 5973,
      "Ġpi": 5974,
      "ĠMic": 5975,
      "Ġkhubsurat": 5976,
      "vas": 5977,
      "Ġunmein": 5978,
      "à¤¹": 5979,
      "Ġdelicious": 5980,
      "Ġjaayegi": 5981,
      "Ġpaida": 5982,
      "Ġreply": 5983,
      "Zaroor": 5984,
      "Ĥ¹": 5985,
      "Ġjane": 5986,
      "Mom": 5987,
      "Ġprovid": 5988,
      "Ġchinta": 5989,
      "Ġlikhe": 5990,
      "ctives": 5991,
      "pper": 5992,
      "cers": 5993,
      "Ġfaith": 5994,
      "ible": 5995,
      "Ġdur": 5996,
      "ingers": 5997,
      "Ġseat": 5998,
      "Ġbanega": 5999,
      "aana": 6000,
      "Ġstrict": 6001,
      "Ġcherish": 6002,
      "really": 6003,
      "Ġsequ": 6004,
      "Ġthak": 6005,
      "Ġacadem": 6006,
      "Ġroots": 6007,
      "Ġturned": 6008,
      "Ġaren": 6009,
      "ĠShah": 6010,
      "Ġlamb": 6011,
      "Ġhobby": 6012,
      "ayan": 6013,
      "ĠState": 6014,
      "ĠTo": 6015,
      "Ġaltern": 6016,
      "khya": 6017,
      "gorith": 6018,
      "till": 6019,
      "akh": 6020,
      "Ġmithai": 6021,
      "fa": 6022,
      "Ġjoy": 6023,
      "Ġcoaching": 6024,
      "Accha": 6025,
      "tical": 6026,
      "Ġblue": 6027,
      "tability": 6028,
      "ĠSal": 6029,
      "Ġdekhenge": 6030,
      "Ġtarget": 6031,
      "ĠSabha": 6032,
      "Ġrecogn": 6033,
      "ĠBengali": 6034,
      "Ġdefine": 6035,
      "ĠTw": 6036,
      "ark": 6037,
      "eren": 6038,
      "icate": 6039,
      "ashtra": 6040,
      "lands": 6041,
      "Ġlately": 6042,
      "ĠHindu": 6043,
      "Ġbud": 6044,
      "Ġchaar": 6045,
      "Ġdocumentary": 6046,
      "Ġcollaboration": 6047,
      "Ġfascinating": 6048,
      "maan": 6049,
      "à¤²": 6050,
      "Ġcheezon": 6051,
      "Ġpopulation": 6052,
      "Ġcycle": 6053,
      "Ġtareeke": 6054,
      "Ġdied": 6055,
      "Ġshahar": 6056,
      "aji": 6057,
      "12": 6058,
      "ĠCup": 6059,
      "Ġsuit": 6060,
      "ĠJapan": 6061,
      "Ġrok": 6062,
      "Ġlose": 6063,
      "Ġroute": 6064,
      "Ġparivar": 6065,
      "Ġeye": 6066,
      "ours": 6067,
      "Ġinside": 6068,
      "Ġbhara": 6069,
      "Ġcommitment": 6070,
      "Ġtonight": 6071,
      "ength": 6072,
      "Ġgiven": 6073,
      "Ġopinion": 6074,
      "together": 6075,
      "Ġmiddle": 6076,
      "estive": 6077,
      "Sha": 6078,
      "Ġcomplaint": 6079,
      "Ġouting": 6080,
      "ody": 6081,
      "Ġbike": 6082,
      "Ġcarry": 6083,
      "Ġinitiative": 6084,
      "ĠUttar": 6085,
      "Ġvill": 6086,
      "Some": 6087,
      "Ġ2013": 6088,
      "Ġprivate": 6089,
      "Ġvolunteer": 6090,
      "uru": 6091,
      "Ġyaadgar": 6092,
      "Ġembarrassed": 6093,
      "ĠAli": 6094,
      "Ġinitially": 6095,
      "Ġsupposed": 6096,
      "Ġanusaar": 6097,
      "BA": 6098,
      "Ġshir": 6099,
      "ĠCal": 6100,
      "ĠGerman": 6101,
      "Ġsky": 6102,
      "Ġestab": 6103,
      "Ġbachon": 6104,
      "Ġchildren": 6105,
      "Ġpub": 6106,
      "Ġlaws": 6107,
      "Ġwants": 6108,
      "Ġnikalne": 6109,
      "Ġanalysis": 6110,
      "Ġsaving": 6111,
      "ĠAir": 6112,
      "Ġwaale": 6113,
      "Ġinstr": 6114,
      "Ġengagement": 6115,
      "Me": 6116,
      "Ġate": 6117,
      "Ġfarmers": 6118,
      "Ġadapt": 6119,
      "Ġinteraction": 6120,
      "Ġpurana": 6121,
      "They": 6122,
      "Ġefforts": 6123,
      "ĠMala": 6124,
      "Ġsoul": 6125,
      "Pro": 6126,
      "Ġsanskrit": 6127,
      "hilos": 6128,
      "Ġhour": 6129,
      "brary": 6130,
      "Ġhorror": 6131,
      "Ġintimate": 6132,
      "Ġchhodna": 6133,
      "ĠCongress": 6134,
      "Ġdhoondh": 6135,
      "Ġspent": 6136,
      "Ġguitar": 6137,
      "Ġupdates": 6138,
      "Ad": 6139,
      "Ġkarw": 6140,
      "Ġfunding": 6141,
      "Ġhate": 6142,
      "Ġbags": 6143,
      "ĠSaf": 6144,
      "Ġbother": 6145,
      "Ġupgra": 6146,
      "ĠJai": 6147,
      "Ġlikhne": 6148,
      "aneer": 6149,
      "ĠOver": 6150,
      "bohot": 6151,
      "Ġkshet": 6152,
      "Ġcab": 6153,
      "Ġknows": 6154,
      "Ġkhaane": 6155,
      "hilosop": 6156,
      "Ġest": 6157,
      "Ġpersonality": 6158,
      "counts": 6159,
      "ĠScience": 6160,
      "Ġkapde": 6161,
      "Ġumar": 6162,
      "inter": 6163,
      "ĠTotally": 6164,
      "oorn": 6165,
      "Ġsadasya": 6166,
      "Ġsource": 6167,
      "Ġkhoobsurat": 6168,
      "corn": 6169,
      "urren": 6170,
      "Ġneighbors": 6171,
      "Ġuncle": 6172,
      "Ġbehen": 6173,
      "ĠReg": 6174,
      "ĠFinally": 6175,
      "Ġmonsoon": 6176,
      "Ġgus": 6177,
      "à¤®": 6178,
      "Ġdevices": 6179,
      "Ġcrossed": 6180,
      "hill": 6181,
      "ĠHyder": 6182,
      "var": 6183,
      "Ġcaf": 6184,
      "ĠSharma": 6185,
      "Ġparking": 6186,
      "Ġritu": 6187,
      "Ġsammanit": 6188,
      "Ġidenti": 6189,
      "pat": 6190,
      "Ġbegin": 6191,
      "Ġzam": 6192,
      "Ġmatches": 6193,
      "ĠYahan": 6194,
      "Ġgotta": 6195,
      "Ġdeliver": 6196,
      "Ġindependent": 6197,
      "Ġcongratulations": 6198,
      "zes": 6199,
      "Ġkm": 6200,
      "ĠRi": 6201,
      "uses": 6202,
      "Ġappoint": 6203,
      "ĠBhartiya": 6204,
      "Äģ": 6205,
      "Ġcast": 6206,
      "Ġhur": 6207,
      "Ġuth": 6208,
      "what": 6209,
      "ones": 6210,
      "Ġwanting": 6211,
      "Ġnibhaya": 6212,
      "aly": 6213,
      "ĠMakes": 6214,
      "dium": 6215,
      "Ġrandom": 6216,
      "Ġsamud": 6217,
      "word": 6218,
      "Ġelectricity": 6219,
      "Ġtik": 6220,
      "Ġstudying": 6221,
      "Ġjitna": 6222,
      "Ġrakhta": 6223,
      "bel": 6224,
      "adhi": 6225,
      "Ġtea": 6226,
      "Ġconfuse": 6227,
      "online": 6228,
      "isor": 6229,
      "ĠSu": 6230,
      "Ġleaving": 6231,
      "gging": 6232,
      "Ġcrypto": 6233,
      "Ġsale": 6234,
      "Ġlottery": 6235,
      "Ġ2010": 6236,
      "Ġjanna": 6237,
      "Ġdocuments": 6238,
      "Ġdessert": 6239,
      "Indi": 6240,
      "Same": 6241,
      "agues": 6242,
      "Bahut": 6243,
      "Ġsenti": 6244,
      "ĠShan": 6245,
      "ids": 6246,
      "Ġdoon": 6247,
      "Ġblame": 6248,
      "Ġdro": 6249,
      "alifor": 6250,
      "Ġbante": 6251,
      "Ġsorted": 6252,
      "Ġmujhse": 6253,
      "itary": 6254,
      "ĠKap": 6255,
      "nect": 6256,
      "Ġsolo": 6257,
      "Ġforever": 6258,
      "Ġnostalgic": 6259,
      "faction": 6260,
      "ĠBro": 6261,
      "Ġrish": 6262,
      "Ġprem": 6263,
      "Ġreceived": 6264,
      "inking": 6265,
      "heart": 6266,
      "Ġensure": 6267,
      "Ġcentury": 6268,
      "Ġmultiple": 6269,
      "Ha": 6270,
      "met": 6271,
      "Ġtheat": 6272,
      "ĠDr": 6273,
      "aves": 6274,
      "Ġgaadi": 6275,
      "Ġpicture": 6276,
      "Com": 6277,
      "Ġtransform": 6278,
      "ĠMake": 6279,
      "alifornia": 6280,
      "Ġcertain": 6281,
      "aged": 6282,
      "Ġparag": 6283,
      "ĠEs": 6284,
      "aper": 6285,
      "Ġbhaag": 6286,
      "Ġparts": 6287,
      "Ġlistening": 6288,
      "Ġcamping": 6289,
      "Ġunpred": 6290,
      "yas": 6291,
      "Ġpeene": 6292,
      "ĠYour": 6293,
      "Ġdeadlines": 6294,
      "Ġrecent": 6295,
      "ĠAng": 6296,
      "Ġjealous": 6297,
      "pet": 6298,
      "Ġtechnical": 6299,
      "Ġly": 6300,
      "Ġbete": 6301,
      "Ġstick": 6302,
      "ootball": 6303,
      "Ġorganized": 6304,
      "Ġreminder": 6305,
      "Ġow": 6306,
      "ĠKavya": 6307,
      "thern": 6308,
      "chill": 6309,
      "Ġrecy": 6310,
      "Ġà¤®": 6311,
      "Ġwatched": 6312,
      "Ġelement": 6313,
      "Ġaverage": 6314,
      "Ġreact": 6315,
      "Ġchannel": 6316,
      "Ġdy": 6317,
      "Ġitem": 6318,
      "Ġalgorith": 6319,
      "Ġconsistency": 6320,
      "Ġvir": 6321,
      "Ġmaro": 6322,
      "works": 6323,
      "Ġmonit": 6324,
      "nology": 6325,
      "umer": 6326,
      "Ġadmit": 6327,
      "Ġpasta": 6328,
      "Ġprint": 6329,
      "ĠOff": 6330,
      "cra": 6331,
      "ĠKo": 6332,
      "Ġmoves": 6333,
      "luck": 6334,
      "rastructure": 6335,
      "jati": 6336,
      "vest": 6337,
      "orge": 6338,
      "ĠRep": 6339,
      "Ġemploye": 6340,
      "ĠRajasthan": 6341,
      "hag": 6342,
      "Ġju": 6343,
      "Ġlots": 6344,
      "ĠWestern": 6345,
      "Ġsetup": 6346,
      "Ġsikh": 6347,
      "Ġrecognition": 6348,
      "gon": 6349,
      "Ġflu": 6350,
      "ĠPan": 6351,
      "Ġkala": 6352,
      "Ġdauraan": 6353,
      "zer": 6354,
      "Ġreleased": 6355,
      "ĠFrench": 6356,
      "Ġindoor": 6357,
      "Ġstudied": 6358,
      "rity": 6359,
      "Ġmath": 6360,
      "ĠSmall": 6361,
      "Ġincluding": 6362,
      "Ġentire": 6363,
      "Ġpav": 6364,
      "ĠIndians": 6365,
      "Ġmetro": 6366,
      "Di": 6367,
      "Ġleague": 6368,
      "Ġcities": 6369,
      "Ġindividual": 6370,
      "haar": 6371,
      "Ġfour": 6372,
      "Ġmaan": 6373,
      "ĠChur": 6374,
      "Ġtiming": 6375,
      "Ġbrave": 6376,
      "Ġphysically": 6377,
      "Ġpradarshan": 6378,
      "Ġjungle": 6379,
      "ĠHer": 6380,
      "Ġawards": 6381,
      "Ġhabits": 6382,
      "Ġrituals": 6383,
      "ĠChar": 6384,
      "Ġproof": 6385,
      "Ġnotic": 6386,
      "Ġkhushiyan": 6387,
      "fact": 6388,
      "Ġrenew": 6389,
      "utter": 6390,
      "Ġbasket": 6391,
      "ache": 6392,
      "Ġdino": 6393,
      "Ġbreakfast": 6394,
      "Ġexercises": 6395,
      "Ġ22": 6396,
      "Ġhelping": 6397,
      "Ġdraw": 6398,
      "Ġmentor": 6399,
      "osa": 6400,
      "Ġsamjh": 6401,
      "Ġholiday": 6402,
      "Al": 6403,
      "ĠIss": 6404,
      "Ġrakhti": 6405,
      "Ġorganization": 6406,
      "Ġexploring": 6407,
      "Ġsentiment": 6408,
      "wel": 6409,
      "Ġdvara": 6410,
      "Ġdespite": 6411,
      "Ġitihaas": 6412,
      "Ġstudent": 6413,
      "ĠRao": 6414,
      "Ġlines": 6415,
      "Ġjayengi": 6416,
      "uja": 6417,
      "Ġprices": 6418,
      "yalam": 6419,
      "Ġintelligence": 6420,
      "yenge": 6421,
      "sequ": 6422,
      "Ġver": 6423,
      "Ġproductive": 6424,
      "Ġlimited": 6425,
      "Ġkyu": 6426,
      "Ġkhali": 6427,
      "There": 6428,
      "hop": 6429,
      "Ġrenov": 6430,
      "Ġvan": 6431,
      "ĠIsliye": 6432,
      "Ġenjoying": 6433,
      "Ġefficiency": 6434,
      "Ġunfair": 6435,
      "lit": 6436,
      "ĠPad": 6437,
      "ĠDekh": 6438,
      "aksha": 6439,
      "Ġtracking": 6440,
      "Ġspending": 6441,
      "Ġsales": 6442,
      "ĠBetter": 6443,
      "Last": 6444,
      "gest": 6445,
      "Ġdarsha": 6446,
      "Ġpaye": 6447,
      "Ġwelcome": 6448,
      "ĠKi": 6449,
      "Ġdecided": 6450,
      "reet": 6451,
      "Ġpod": 6452,
      "ĠThen": 6453,
      "Ġhabit": 6454,
      "Sure": 6455,
      "ositive": 6456,
      "Ġfolk": 6457,
      "Ġthode": 6458,
      "diwali": 6459,
      "ront": 6460,
      "ssip": 6461,
      "ib": 6462,
      "Ġreun": 6463,
      "Ġpaayenge": 6464,
      "Ġcarbon": 6465,
      "Ġteamwork": 6466,
      "hineta": 6467,
      "Ġsilly": 6468,
      "Ġill": 6469,
      "alization": 6470,
      "Ġjaayein": 6471,
      "venture": 6472,
      "Ġimpressed": 6473,
      "Magar": 6474,
      "Ġled": 6475,
      "Ġprofit": 6476,
      "Ġkyon": 6477,
      "Ġkav": 6478,
      "Ġchaho": 6479,
      "Ġcats": 6480,
      "rophy": 6481,
      "Ġhype": 6482,
      "Tell": 6483,
      "kti": 6484,
      "ound": 6485,
      "Ġhan": 6486,
      "Ġisi": 6487,
      "ateg": 6488,
      "ĠAfric": 6489,
      "ĠMalayalam": 6490,
      "ĠData": 6491,
      "uster": 6492,
      "Ġcontribute": 6493,
      "Ġwooden": 6494,
      "Ġroller": 6495,
      "ĠKahani": 6496,
      "Ġeffects": 6497,
      "Ġhotel": 6498,
      "ĠSocial": 6499,
      "Ġmarkets": 6500,
      "ĠGames": 6501,
      "Ġstruggles": 6502,
      "Ġcrucial": 6503,
      "30": 6504,
      "ris": 6505,
      "Ġsamajhta": 6506,
      "Ġleadership": 6507,
      "Ġconsidered": 6508,
      "Ġdanger": 6509,
      "Ġbore": 6510,
      "Ġspices": 6511,
      "order": 6512,
      "ĠBig": 6513,
      "Ġtrail": 6514,
      "ĠVo": 6515,
      "Ġpaanch": 6516,
      "iland": 6517,
      "Ġsem": 6518,
      "Ġhil": 6519,
      "ĠVen": 6520,
      "Ġblog": 6521,
      "Ġestate": 6522,
      "hega": 6523,
      "Ġmax": 6524,
      "gaar": 6525,
      "Ġartis": 6526,
      "Ġadventures": 6527,
      "ĠHumare": 6528,
      "Ġrakhi": 6529,
      "Ġgenerate": 6530,
      "Ġpriority": 6531,
      "Ġregularly": 6532,
      "ĠKannada": 6533,
      "win": 6534,
      "Ġcro": 6535,
      "Ġfestive": 6536,
      "Ġpair": 6537,
      "Simran": 6538,
      "Ġmass": 6539,
      "Ġ190": 6540,
      "ĠâĢĶ": 6541,
      "Ġnirdeshak": 6542,
      "ĠâĤ¹": 6543,
      "lay": 6544,
      "Ġpurcha": 6545,
      "Ġchapter": 6546,
      "know": 6547,
      "yalaya": 6548,
      "chcha": 6549,
      "Ġbaj": 6550,
      "ĠMet": 6551,
      "Ġdiy": 6552,
      "Ġswe": 6553,
      "getarian": 6554,
      "Ġtalked": 6555,
      "Ġ2009": 6556,
      "Ġclos": 6557,
      "Ġformal": 6558,
      "ĠPunjabi": 6559,
      "Ġdekhni": 6560,
      "Ġstars": 6561,
      "Ġgossip": 6562,
      "ĠVar": 6563,
      "Ġfarming": 6564,
      "Ġsaamne": 6565,
      "haa": 6566,
      "Ġnatak": 6567,
      "alian": 6568,
      "Ġperspectives": 6569,
      "Ġportra": 6570,
      "Ġsatisfaction": 6571,
      "Beach": 6572,
      "Ġjahaan": 6573,
      "gious": 6574,
      "Ġemotion": 6575,
      "uals": 6576,
      "ened": 6577,
      "Ġniche": 6578,
      "Ġmanageable": 6579,
      "Ġseekha": 6580,
      "Ġnirdeshan": 6581,
      "ĠMusic": 6582,
      "Ġtitle": 6583,
      "Ġsuspense": 6584,
      "vad": 6585,
      "ĠBilkul": 6586,
      "Ġdiag": 6587,
      "ize": 6588,
      "Ġpu": 6589,
      "icine": 6590,
      "Ġmaze": 6591,
      "ĠPlan": 6592,
      "down": 6593,
      "ify": 6594,
      "ĠBook": 6595,
      "ĠGreat": 6596,
      "Ġmaterial": 6597,
      "Ġcurious": 6598,
      "nata": 6599,
      "hiti": 6600,
      "tay": 6601,
      "Ġarg": 6602,
      "Ġsamjhana": 6603,
      "urday": 6604,
      "ams": 6605,
      "Ġshaam": 6606,
      "Ġmarathon": 6607,
      "harit": 6608,
      "Ġsurg": 6609,
      "Ġsurv": 6610,
      "Ġattack": 6611,
      "ĠKrishna": 6612,
      "Ġsort": 6613,
      "Ġgas": 6614,
      "uth": 6615,
      "Ġdoctors": 6616,
      "Ġseekhte": 6617,
      "Ġ2008": 6618,
      "Ġepisode": 6619,
      "Ġmilest": 6620,
      "Ġpresence": 6621,
      "ĠEngland": 6622,
      "Ġretirement": 6623,
      "ĠUP": 6624,
      "ĠâĢĺ": 6625,
      "Ġdirected": 6626,
      "ĠBasically": 6627,
      "Ġentry": 6628,
      "Ġnearby": 6629,
      "Ġpodcast": 6630,
      "17": 6631,
      "did": 6632,
      "kon": 6633,
      "Ġaay": 6634,
      "Ġdry": 6635,
      "ĠCat": 6636,
      "Ġexperien": 6637,
      "Ġ189": 6638,
      "Ġparticularly": 6639,
      "Ġinhe": 6640,
      "Ġchha": 6641,
      "ĠAsia": 6642,
      "fting": 6643,
      "Ġaag": 6644,
      "Ġabhineta": 6645,
      "Ġmyst": 6646,
      "Ġpadti": 6647,
      "Ġdecoration": 6648,
      "CT": 6649,
      "ĠStill": 6650,
      "roup": 6651,
      "Ġpen": 6652,
      "Ġbreed": 6653,
      "Ġcourt": 6654,
      "Ġthriller": 6655,
      "Ġwarmth": 6656,
      "Ġchuke": 6657,
      "ppe": 6658,
      "iling": 6659,
      "Ġfocused": 6660,
      "ĠCheck": 6661,
      "Le": 6662,
      "had": 6663,
      "cean": 6664,
      "hentic": 6665,
      "Ġstable": 6666,
      "Ġpun": 6667,
      "rect": 6668,
      "uel": 6669,
      "ager": 6670,
      "ĠDus": 6671,
      "Ġanub": 6672,
      "Ġrule": 6673,
      "Ġcontinu": 6674,
      "Ġmistakes": 6675,
      "Ġfile": 6676,
      "Ġrecommendations": 6677,
      "ĠYaar": 6678,
      "Ġinse": 6679,
      "ĠTera": 6680,
      "ĠMaj": 6681,
      "osure": 6682,
      "Ġflat": 6683,
      "Ġtayaar": 6684,
      "Ġmarried": 6685,
      "ĠInternational": 6686,
      "Of": 6687,
      "Ġtone": 6688,
      "Ġscrat": 6689,
      "Ġyaadon": 6690,
      "raphic": 6691,
      "mpionship": 6692,
      "Ġcontributions": 6693,
      "bh": 6694,
      "reed": 6695,
      "Ġbaja": 6696,
      "Ġgalti": 6697,
      "mir": 6698,
      "Ġbooking": 6699,
      "ĠPri": 6700,
      "Ġdusri": 6701,
      "cony": 6702,
      "Ġdrink": 6703,
      "Ġnuks": 6704,
      "Ġnamed": 6705,
      "Ġbarish": 6706,
      "ĠPras": 6707,
      "Ġsl": 6708,
      "Ġboat": 6709,
      "Ġriver": 6710,
      "Ġchalti": 6711,
      "Ġentrepreneurs": 6712,
      "otic": 6713,
      "Ġpopcorn": 6714,
      "Ġpriceless": 6715,
      "body": 6716,
      "Ġdeals": 6717,
      "ĠThese": 6718,
      "cribe": 6719,
      "Ġchurch": 6720,
      "Ġunpredictable": 6721,
      "nan": 6722,
      "illing": 6723,
      "Ġaccur": 6724,
      "Ġtherapist": 6725,
      "Ġchemistry": 6726,
      "Ġgussa": 6727,
      "Ġnut": 6728,
      "Ġkhate": 6729,
      "Ġarri": 6730,
      "ĠUsne": 6731,
      "Ġcandid": 6732,
      "ords": 6733,
      "uni": 6734,
      "Ġsabne": 6735,
      "usting": 6736,
      "Ġtrouble": 6737,
      "Ġflying": 6738,
      "cially": 6739,
      "Ġstoryline": 6740,
      "selves": 6741,
      "Ġweren": 6742,
      "Ġneta": 6743,
      "endra": 6744,
      "Ġbreaths": 6745,
      "Ġannounce": 6746,
      "Ġgadgets": 6747,
      "aanki": 6748,
      "Ġnights": 6749,
      "gen": 6750,
      "Ġdet": 6751,
      "race": 6752,
      "ĠBir": 6753,
      "daar": 6754,
      "Ġdonate": 6755,
      "Ġswitch": 6756,
      "Ġconsult": 6757,
      "Ġcruise": 6758,
      "ĠInstitute": 6759,
      "ĠAustralia": 6760,
      "Gu": 6761,
      "Ġtruck": 6762,
      "Ġaccording": 6763,
      "Ġpooja": 6764,
      "ĠCalifornia": 6765,
      "ĠGi": 6766,
      "licity": 6767,
      "Ġtayyar": 6768,
      "Ġ40": 6769,
      "Ġkhiladi": 6770,
      "Ġsometime": 6771,
      "Ġmid": 6772,
      "orage": 6773,
      "Ġgeet": 6774,
      "Ġprop": 6775,
      "Ġwalked": 6776,
      "Ġstartups": 6777,
      "Ġvishwas": 6778,
      "Ġmeaningful": 6779,
      "ĠThin": 6780,
      "Ġuniversity": 6781,
      "Ġattitude": 6782,
      "ĠHyderabad": 6783,
      "Ġkiller": 6784,
      "Ġrights": 6785,
      "Ġadvanced": 6786,
      "ĠMarathi": 6787,
      "Ġphase": 6788,
      "):": 6789,
      "Ġrailway": 6790,
      "ĠMc": 6791,
      "hant": 6792,
      "Ġsamar": 6793,
      "Ġpackage": 6794,
      "Ġlambi": 6795,
      "Ġrates": 6796,
      "ĠStar": 6797,
      "Ġlevels": 6798,
      "Ġrajneeti": 6799,
      "roll": 6800,
      "Ġjanam": 6801,
      "oms": 6802,
      "andhi": 6803,
      "Ġtai": 6804,
      "Ġbatayenge": 6805,
      "Ġinfrastructure": 6806,
      "Ġletting": 6807,
      "can": 6808,
      "romise": 6809,
      "Ġpursue": 6810,
      "Ġoccasion": 6811,
      "Ġartisans": 6812,
      "icks": 6813,
      "ĠAisa": 6814,
      "Ġnarr": 6815,
      "Ġkhabar": 6816,
      "ami": 6817,
      "Ġdekhta": 6818,
      "Ġeverywhere": 6819,
      "Ġcalcul": 6820,
      "Online": 6821,
      "ĠDisney": 6822,
      "Ġpahuncha": 6823,
      "Ġminimalist": 6824,
      "Ġ{": 6825,
      "Ġic": 6826,
      "Ġpul": 6827,
      "Ġsays": 6828,
      "inder": 6829,
      "Ġsend": 6830,
      "ĠDeep": 6831,
      "Ġrespond": 6832,
      "Se": 6833,
      "iles": 6834,
      "ĠSunday": 6835,
      "Ġplus": 6836,
      "ression": 6837,
      "Ġshared": 6838,
      "Ġdikhata": 6839,
      "fall": 6840,
      "Ġtaken": 6841,
      "Ġwouldn": 6842,
      "Ġassign": 6843,
      "Ġkhich": 6844,
      "Ġreturns": 6845,
      "Ġsources": 6846,
      "ID": 6847,
      "ĠGar": 6848,
      "jun": 6849,
      "ern": 6850,
      "akers": 6851,
      "Ġbrainstorming": 6852,
      "icated": 6853,
      "ĠMai": 6854,
      "being": 6855,
      "Ġdepos": 6856,
      "Ġvyav": 6857,
      "Ġmistake": 6858,
      "Ġpaneer": 6859,
      "Ġmail": 6860,
      "Ġkhari": 6861,
      "Ġjinhe": 6862,
      "Ġupgrade": 6863,
      "arm": 6864,
      "Ġregar": 6865,
      "Ġrehkar": 6866,
      "Ġfinished": 6867,
      "Ġbreathing": 6868,
      "cil": 6869,
      "een": 6870,
      "reme": 6871,
      "ille": 6872,
      "Ġsimplicity": 6873,
      "Ġvote": 6874,
      "tha": 6875,
      "Ġaar": 6876,
      "yav": 6877,
      "Ġinput": 6878,
      "Ġethical": 6879,
      "Ġgrieve": 6880,
      "Ġanubhav": 6881,
      "vin": 6882,
      "Ġcateg": 6883,
      "ĠWal": 6884,
      "Ġ21": 6885,
      "Ġdusron": 6886,
      "Ġdelay": 6887,
      "Ġwinter": 6888,
      "ĠCommun": 6889,
      "Ġrecognize": 6890,
      "ĠFootball": 6891,
      "Ġrakhni": 6892,
      "dha": 6893,
      "ĠAman": 6894,
      "iyaan": 6895,
      "Ġpitch": 6896,
      "ĠNadu": 6897,
      "Ġjayein": 6898,
      "ĠRaja": 6899,
      "Ġspeech": 6900,
      "Ġlekhak": 6901,
      "Ġghoomti": 6902,
      "nataka": 6903,
      "Ġven": 6904,
      "Ġexposure": 6905,
      "ĠVal": 6906,
      "Ġplaylist": 6907,
      "Ġpadhna": 6908,
      "lymp": 6909,
      "Ġthand": 6910,
      "ĠWhere": 6911,
      "Ġcheat": 6912,
      "Ġmusk": 6913,
      "cessary": 6914,
      "Unka": 6915,
      "Ġdistraction": 6916,
      "Ġstunning": 6917,
      "ĠNot": 6918,
      "Ġyaadgaar": 6919,
      "Ġteaching": 6920,
      "Ġinitiatives": 6921,
      "ĠPeople": 6922,
      "Ġaakar": 6923,
      "ĠčĊ": 6924,
      "Ġwallet": 6925,
      "ĠMost": 6926,
      "Ġ90": 6927,
      "Ġnavig": 6928,
      "Ġshab": 6929,
      "Ġpaate": 6930,
      "Ġbasis": 6931,
      "Ġmuse": 6932,
      "ĠHealth": 6933,
      "Ġmodels": 6934,
      "Ġaccessories": 6935,
      "Ġanticip": 6936,
      "Ġherbs": 6937,
      "Ġcommer": 6938,
      "Ġbalcony": 6939,
      "Ġdukh": 6940,
      "Ġstalls": 6941,
      "ffer": 6942,
      "print": 6943,
      "Ġgrade": 6944,
      "Ġ80": 6945,
      "Ġoffers": 6946,
      "Ġconvenience": 6947,
      "Ġvikas": 6948,
      "Ġpure": 6949,
      "dak": 6950,
      "Ġpadhi": 6951,
      "Ġchanged": 6952,
      "Ġefficient": 6953,
      "Ġser": 6954,
      "istance": 6955,
      "aks": 6956,
      "Ġeasier": 6957,
      "Ġauthentic": 6958,
      "Ġprincip": 6959,
      "Ġbottle": 6960,
      "jood": 6961,
      "Ġapplication": 6962,
      "Ġdangerous": 6963,
      "remote": 6964,
      "istics": 6965,
      "dies": 6966,
      "Ġdahi": 6967,
      "ician": 6968,
      "Ġmixed": 6969,
      "Ġgolden": 6970,
      "Ġreunion": 6971,
      "Har": 6972,
      "Ġmir": 6973,
      "ĠBeing": 6974,
      "Ġtourism": 6975,
      "Ġlarge": 6976,
      "ĠPakistan": 6977,
      "acha": 6978,
      "hish": 6979,
      "Ġdadi": 6980,
      "cts": 6981,
      "ĠWah": 6982,
      "Ġchunav": 6983,
      "Ġlingu": 6984,
      "Ġship": 6985,
      "Ġmay": 6986,
      "idhi": 6987,
      "Ġdisheart": 6988,
      "Ġrechar": 6989,
      "Ġterms": 6990,
      "ortunately": 6991,
      "Ġmajboor": 6992,
      "hate": 6993,
      "ĠAg": 6994,
      "Ġimprovement": 6995,
      "ademy": 6996,
      "Ġaccidentally": 6997,
      "inkedIn": 6998,
      "Actually": 6999,
      "Ġfridge": 7000,
      "ĠMag": 7001,
      "Ġbanna": 7002,
      "Ġmool": 7003,
      "Ġindian": 7004,
      "Goa": 7005,
      "Ġmine": 7006,
      "Ġchaos": 7007,
      "ĠTom": 7008,
      "Ġusi": 7009,
      "ĠFrance": 7010,
      "ĠVis": 7011,
      "Ġchances": 7012,
      "hyam": 7013,
      "Ġpatra": 7014,
      "Ġdoosri": 7015,
      "fs": 7016,
      "oes": 7017,
      "ĠMil": 7018,
      "ĠDra": 7019,
      "Ġdistrib": 7020,
      "clear": 7021,
      "ĠBac": 7022,
      "Ġrather": 7023,
      "koi": 7024,
      "Ġbattle": 7025,
      "uva": 7026,
      "Ġchamak": 7027,
      "Ġkhaya": 7028,
      "Ġrealistic": 7029,
      "'!": 7030,
      "blowing": 7031,
      "eved": 7032,
      "Ġreduce": 7033,
      "Ġmode": 7034,
      "ĠGet": 7035,
      "Ġdikhai": 7036,
      "Ġcoworker": 7037,
      "xic": 7038,
      "Ġghatna": 7039,
      "Ġcomplain": 7040,
      "Ġsamart": 7041,
      "Ġhyd": 7042,
      "Ġdebut": 7043,
      "Ġinfluencers": 7044,
      "Ġlyrics": 7045,
      "Ġnoticed": 7046,
      "ike": 7047,
      "Ġphilosop": 7048,
      "rad": 7049,
      "Ġawaaz": 7050,
      "Ġhomemade": 7051,
      "Ġvegetarian": 7052,
      "Ġregret": 7053,
      "ustomer": 7054,
      "Ġepic": 7055,
      "rist": 7056,
      "illa": 7057,
      "ĠAwards": 7058,
      "aced": 7059,
      "Ġwalks": 7060,
      "Ġpainful": 7061,
      "Ġdynam": 7062,
      "Ġelection": 7063,
      "Ġ188": 7064,
      "Ġjournal": 7065,
      "Im": 7066,
      "Most": 7067,
      "Ġincident": 7068,
      "Ġfaida": 7069,
      "Ġagle": 7070,
      "tya": 7071,
      "onest": 7072,
      "ĠKaran": 7073,
      "ĠGener": 7074,
      "saas": 7075,
      "Ġcards": 7076,
      "Ġcris": 7077,
      "ĠJaipur": 7078,
      "Ġcalmly": 7079,
      "well": 7080,
      "ĠJe": 7081,
      "Ġcollect": 7082,
      "Ġconditions": 7083,
      "ĠSafety": 7084,
      "den": 7085,
      "Ġurban": 7086,
      "Ġahead": 7087,
      "ĠClass": 7088,
      "rities": 7089,
      "Ġmaster": 7090,
      "Ġconstru": 7091,
      "dden": 7092,
      "Ġrequire": 7093,
      "mla": 7094,
      "Ġdates": 7095,
      "Ġviol": 7096,
      "Ġnirman": 7097,
      "ju": 7098,
      "nak": 7099,
      "ĠNaina": 7100,
      "Ġoverthink": 7101,
      "Ġtask": 7102,
      "Ġsud": 7103,
      "ĠSahi": 7104,
      "Ġassoci": 7105,
      "Ġpoori": 7106,
      "Ġpatterns": 7107,
      "Ġappointment": 7108,
      "why": 7109,
      "Ġmal": 7110,
      "athy": 7111,
      "Ġautomat": 7112,
      "Ġconfusing": 7113,
      "samajh": 7114,
      "star": 7115,
      "Ġexpected": 7116,
      "Ġrevolution": 7117,
      "ĠKarnataka": 7118,
      "Ġreasons": 7119,
      "Ġgreenery": 7120,
      "Ġidentify": 7121,
      "ĠSabko": 7122,
      "Ġending": 7123,
      "Ġmachines": 7124,
      "Ġsemester": 7125,
      "ĠGrand": 7126,
      "Ġjanme": 7127,
      "Ġtreatment": 7128,
      "Ġdialogues": 7129,
      "Ġofficial": 7130,
      "Ġsoc": 7131,
      "Ġsamuh": 7132,
      "Ġanalyze": 7133,
      "Ġapologize": 7134,
      "Sc": 7135,
      "eder": 7136,
      "Ġveg": 7137,
      "dar": 7138,
      "Ġed": 7139,
      "ĠTim": 7140,
      "Ġstorage": 7141,
      "Ġdhoop": 7142,
      "Ġstreaming": 7143,
      "cles": 7144,
      "itation": 7145,
      "Ġnazar": 7146,
      "nder": 7147,
      "Ġcompromise": 7148,
      "intage": 7149,
      "every": 7150,
      "etry": 7151,
      "Ġhits": 7152,
      "ĠDire": 7153,
      "ratri": 7154,
      "Ġpoore": 7155,
      "Ġactively": 7156,
      "Ġparagraph": 7157,
      "Ġfive": 7158,
      "anth": 7159,
      "ĠKan": 7160,
      "ĠChat": 7161,
      "Ġcommand": 7162,
      "Ġvisual": 7163,
      "Ġkshetron": 7164,
      "Ġkavita": 7165,
      "16": 7166,
      "din": 7167,
      "iny": 7168,
      "Ġpor": 7169,
      "road": 7170,
      "humare": 7171,
      "Ġtheatre": 7172,
      "asing": 7173,
      "ties": 7174,
      "thy": 7175,
      "ĠRoad": 7176,
      "ĠCanada": 7177,
      "Ġsubjects": 7178,
      "Ġambi": 7179,
      "Ġu": 7180,
      "Ġhaha": 7181,
      "ĠNand": 7182,
      "Ġnadi": 7183,
      "ĠPal": 7184,
      "ĠPositive": 7185,
      "Ġgenre": 7186,
      "Ġsamapt": 7187,
      "cuse": 7188,
      "Ġvyap": 7189,
      "SA": 7190,
      "Ġpants": 7191,
      "Ġwide": 7192,
      "ĠList": 7193,
      "Ġadvant": 7194,
      "ĠEspecially": 7195,
      "Ġpyar": 7196,
      "ica": 7197,
      "ĠFriend": 7198,
      "Ġessence": 7199,
      "Ġdhan": 7200,
      "Ġhost": 7201,
      "ĠGoogle": 7202,
      "Ġkalakar": 7203,
      "Ġrecharge": 7204,
      "Ġgives": 7205,
      "Ġlibrary": 7206,
      "Ġinsights": 7207,
      "Ġkhoj": 7208,
      "Ġupsetting": 7209,
      "Ġprotein": 7210,
      "Priya": 7211,
      "iled": 7212,
      "Ġshas": 7213,
      "Ġbachne": 7214,
      "Ġlength": 7215,
      "Ġmelo": 7216,
      "Ġegg": 7217,
      "ĠHR": 7218,
      "ĠIts": 7219,
      "Ġutpad": 7220,
      "Ġthrilling": 7221,
      "Ġaccessible": 7222,
      "Ġfruit": 7223,
      "Ġmazak": 7224,
      "Ġsector": 7225,
      "Ġdisaster": 7226,
      "Ġfreel": 7227,
      "Ġcontribution": 7228,
      "place": 7229,
      "Ġbran": 7230,
      "ĠBat": 7231,
      "Ġrahein": 7232,
      "Ġblood": 7233,
      "Ġforms": 7234,
      "Ġcycling": 7235,
      "hati": 7236,
      "Ġmovement": 7237,
      "Ġhidden": 7238,
      "Ġhumor": 7239,
      "Ġheat": 7240,
      "Ġzero": 7241,
      "ĠLinkedIn": 7242,
      "Ġunderes": 7243,
      "Ġorganiz": 7244,
      "nis": 7245,
      "ĠSil": 7246,
      "Ġbrings": 7247,
      "Ġfactor": 7248,
      "Ġcontinue": 7249,
      "bing": 7250,
      "Ġped": 7251,
      "ĠPres": 7252,
      "Ġround": 7253,
      "Ġprofessor": 7254,
      "Ġairport": 7255,
      "ĠKapoor": 7256,
      "But": 7257,
      "alu": 7258,
      "bert": 7259,
      "ĠKash": 7260,
      "ĠCour": 7261,
      "Ġpace": 7262,
      "Ġscope": 7263,
      "Ġdaalna": 7264,
      "ckey": 7265,
      "Ġcerti": 7266,
      "Ġlink": 7267,
      "cons": 7268,
      "Ġpotluck": 7269,
      "Ġlikhna": 7270,
      "mination": 7271,
      "iter": 7272,
      "Ġvoh": 7273,
      "chit": 7274,
      "Ġ2006": 7275,
      "Ġfacilities": 7276,
      "Ġmilestone": 7277,
      "thi": 7278,
      "Ġexist": 7279,
      "Ġpaa": 7280,
      "Ġpapa": 7281,
      "ricult": 7282,
      "Ġsafai": 7283,
      "Ġslowly": 7284,
      "Ġstraight": 7285,
      "tan": 7286,
      "Ġexha": 7287,
      "Ġsamajhti": 7288,
      "Ġdecent": 7289,
      "Ġtip": 7290,
      "Ġdhama": 7291,
      "Ġbonfire": 7292,
      "Ġprakas": 7293,
      "elp": 7294,
      "ental": 7295,
      "Ġconcent": 7296,
      "Ġrides": 7297,
      "Ġkahaniyon": 7298,
      "Ġcrowded": 7299,
      "understand": 7300,
      "Ġhafte": 7301,
      "ote": 7302,
      "Ġsites": 7303,
      "Ġsthaniya": 7304,
      "Bataiye": 7305,
      "Ġkhula": 7306,
      "Ġaffordable": 7307,
      "ĠVa": 7308,
      "Ġcontest": 7309,
      "Ġdedicated": 7310,
      "adha": 7311,
      "Ġvisa": 7312,
      "Ġvisha": 7313,
      "ĠAcademy": 7314,
      "Ġwoman": 7315,
      "arik": 7316,
      "Ġhisse": 7317,
      "Ġsthapna": 7318,
      "ey": 7319,
      "Ġbaw": 7320,
      "ĠAct": 7321,
      "Ġchun": 7322,
      "Ġeleg": 7323,
      "cre": 7324,
      "yata": 7325,
      "Ġsthal": 7326,
      "ĠMas": 7327,
      "Ġdivide": 7328,
      "Ġbadla": 7329,
      "ĠVik": 7330,
      "Ġdeshon": 7331,
      "yadatar": 7332,
      "ological": 7333,
      "Ġ2007": 7334,
      "ception": 7335,
      "Ġgehra": 7336,
      "Man": 7337,
      "ĠTab": 7338,
      "ĠPy": 7339,
      "Ġlearned": 7340,
      "Ġpaying": 7341,
      "app": 7342,
      "Ġmall": 7343,
      "imum": 7344,
      "Ġpade": 7345,
      "Ġadhi": 7346,
      "Ġdikhate": 7347,
      "Ġessential": 7348,
      "Ġehsaas": 7349,
      "Ġshirt": 7350,
      "Ġlinguistic": 7351,
      "Ġdas": 7352,
      "Ġlock": 7353,
      "Ġhands": 7354,
      "utch": 7355,
      "ekar": 7356,
      "ĠSamajh": 7357,
      "ĠChai": 7358,
      "ĠDev": 7359,
      "Ġdeadline": 7360,
      "Ġfright": 7361,
      "Ġrelev": 7362,
      "etri": 7363,
      "Ġjoke": 7364,
      "Ġups": 7365,
      "ĠMahar": 7366,
      "Ġburn": 7367,
      "eli": 7368,
      "Ġmaja": 7369,
      "ĠHouse": 7370,
      "Ġjod": 7371,
      "Ġcancer": 7372,
      "Ġchahungi": 7373,
      "Ġwinning": 7374,
      "Ġfarak": 7375,
      "rise": 7376,
      "Ġbanayega": 7377,
      "Ġgrowing": 7378,
      "Ġaccomp": 7379,
      "Ġdetox": 7380,
      "hamm": 7381,
      "Ġdemo": 7382,
      "Ġmilk": 7383,
      "ĠUr": 7384,
      "Ġcommunities": 7385,
      "Ġdikhta": 7386,
      "ĠQu": 7387,
      "kan": 7388,
      "Ġuch": 7389,
      "using": 7390,
      "taking": 7391,
      "ĠEmp": 7392,
      "Ġideal": 7393,
      "Ġdescribe": 7394,
      "haha": 7395,
      "agal": 7396,
      "ĠSanskrit": 7397,
      "ither": 7398,
      "Ġbhav": 7399,
      "Ġmandir": 7400,
      "Ġbasketball": 7401,
      "And": 7402,
      "ĠRang": 7403,
      "Ġbless": 7404,
      "olden": 7405,
      "Bohot": 7406,
      "PL": 7407,
      "mata": 7408,
      "Ġ/": 7409,
      "haaan": 7410,
      "Ġkadam": 7411,
      "ario": 7412,
      "ensive": 7413,
      "ĠWhile": 7414,
      "Ġrewarding": 7415,
      "itne": 7416,
      "Ġforce": 7417,
      "like": 7418,
      "Ġseemed": 7419,
      "ĠKam": 7420,
      "Ġfilmo": 7421,
      "mother": 7422,
      "Ġliteracy": 7423,
      "Ġbonus": 7424,
      "11": 7425,
      "used": 7426,
      "Ġload": 7427,
      "ĠJam": 7428,
      "Ġ2000": 7429,
      "Ġgrate": 7430,
      "Ġuplabdh": 7431,
      "rityu": 7432,
      "cation": 7433,
      "ĠCle": 7434,
      "Ġsupporting": 7435,
      "Ġscenes": 7436,
      "ĠVijay": 7437,
      "Ġnaz": 7438,
      "ript": 7439,
      "ĠLake": 7440,
      "Ġrude": 7441,
      "à¤Ĺ": 7442,
      "Ġinteractive": 7443,
      "Ġconcerns": 7444,
      "Ġcooki": 7445,
      "Ġrenewable": 7446,
      "Ġunderestimate": 7447,
      "ankh": 7448,
      "Ġchup": 7449,
      "usement": 7450,
      "Ġactress": 7451,
      "ĠHumein": 7452,
      "pass": 7453,
      "Ġmrityu": 7454,
      "ald": 7455,
      "tah": 7456,
      "Ġcompose": 7457,
      "ĠWeekend": 7458,
      "Ġsankhya": 7459,
      "Ġempower": 7460,
      "Ġgul": 7461,
      "Ġrepe": 7462,
      "Ġyard": 7463,
      "ĠDar": 7464,
      "Ġblast": 7465,
      "Ġkharchon": 7466,
      "Mostly": 7467,
      "Ġchalne": 7468,
      "Ġspirituality": 7469,
      "Ġaccomplish": 7470,
      "ao": 7471,
      "riday": 7472,
      "ĠFlor": 7473,
      "ratitude": 7474,
      "rest": 7475,
      "Ġgraphic": 7476,
      "Ġsell": 7477,
      "ĠSy": 7478,
      "cient": 7479,
      "Ġspecies": 7480,
      "Ġbadhne": 7481,
      "Ġcharging": 7482,
      "Ġcapital": 7483,
      "Ġenjoyed": 7484,
      "Ġdisappointment": 7485,
      "ĠRiver": 7486,
      "\".": 7487,
      "Pl": 7488,
      "mate": 7489,
      "Ġfab": 7490,
      "Ġlie": 7491,
      "ĠMr": 7492,
      "Ġaware": 7493,
      "ubai": 7494,
      "Ġfollowing": 7495,
      "à¥ĩà¤Ĥ": 7496,
      "Ġpayi": 7497,
      "Ġcomment": 7498,
      "duct": 7499,
      "Ġmenu": 7500,
      "Ġgrateful": 7501,
      "isco": 7502,
      "Ġtoy": 7503,
      "Ġbroad": 7504,
      "Ġsanst": 7505,
      "Ġ2005": 7506,
      "ĠArmy": 7507,
      "Ġeconomic": 7508,
      "boot": 7509,
      "Ġking": 7510,
      "ĠAut": 7511,
      "Ġlagne": 7512,
      "Ġvichar": 7513,
      "Ġstrange": 7514,
      "Ġfinancially": 7515,
      "Ġcompetitive": 7516,
      "Ġannoyed": 7517,
      "Ġvillage": 7518,
      "making": 7519,
      "Ġenvironmental": 7520,
      "MI": 7521,
      "Ġath": 7522,
      "ĠKnow": 7523,
      "Ġfees": 7524,
      "Ġwithin": 7525,
      "Ġsmaller": 7526,
      "Ġexploration": 7527,
      "ĠCons": 7528,
      "Ġshoot": 7529,
      "ĠStart": 7530,
      "Ġdesigner": 7531,
      "but": 7532,
      "asa": 7533,
      "ĠBur": 7534,
      "Ġfeet": 7535,
      "ĠPay": 7536,
      "ĠFort": 7537,
      "Ġrestaurants": 7538,
      "Kuch": 7539,
      "Ġnidhan": 7540,
      "Ġsomewhere": 7541,
      "Ġbread": 7542,
      "Ġmindset": 7543,
      "ĠWork": 7544,
      "Ġdrinks": 7545,
      "Smart": 7546,
      "po": 7547,
      "ony": 7548,
      "Ġdrop": 7549,
      "Ġ28": 7550,
      "ĠUnko": 7551,
      "Ġmusical": 7552,
      "Ġeducational": 7553,
      "Ġhamara": 7554,
      "Ġjewel": 7555,
      "otion": 7556,
      "Ġmi": 7557,
      "Ġmeals": 7558,
      "Ġstations": 7559,
      "Ġpayega": 7560,
      "arious": 7561,
      "Ġpolitely": 7562,
      "Ġcelebrations": 7563,
      "Ġdram": 7564,
      "Ġpari": 7565,
      "llow": 7566,
      "mod": 7567,
      "Ġ2004": 7568,
      "Ġfoundation": 7569,
      "Ġpaintings": 7570,
      "Ġrenovation": 7571,
      "Meri": 7572,
      "writ": 7573,
      "house": 7574,
      "Ġkaaran": 7575,
      "ĠHoli": 7576,
      "Ġoffic": 7577,
      "ĠAnswer": 7578,
      "ukt": 7579,
      "Ġinflation": 7580,
      ",'": 7581,
      "Ġuda": 7582,
      "ussi": 7583,
      "Ġroll": 7584,
      "Ġeveryday": 7585,
      "ducation": 7586,
      "Ġletter": 7587,
      "Ġsamjhe": 7588,
      "Ġconstantly": 7589,
      "Ġframe": 7590,
      "ĠSaturday": 7591,
      "foli": 7592,
      "Ġjaakar": 7593,
      "ĠAy": 7594,
      "ĠGame": 7595,
      "à¥ģ": 7596,
      "ĠChurch": 7597,
      "Ġkhas": 7598,
      "Ġcontro": 7599,
      "weekend": 7600,
      "Ġinstrument": 7601,
      "Ġvenue": 7602,
      "Ġaloo": 7603,
      "osition": 7604,
      "Ġmarks": 7605,
      "Ġfrequ": 7606,
      "Ġelectron": 7607,
      "Ġclubs": 7608,
      "Ġpublish": 7609,
      "chai": 7610,
      "ph": 7611,
      "Ġhara": 7612,
      "ered": 7613,
      "Ġcrime": 7614,
      "inge": 7615,
      "ĠSi": 7616,
      "ĠCher": 7617,
      "garh": 7618,
      "lier": 7619,
      "chana": 7620,
      "Ġconflic": 7621,
      "Ġthankful": 7622,
      "Ġshelter": 7623,
      "estic": 7624,
      "Ġstates": 7625,
      "ĠMand": 7626,
      "Ġwaves": 7627,
      "Ġ27": 7628,
      "ksh": 7629,
      "Ġpolite": 7630,
      "ĠKabir": 7631,
      "your": 7632,
      "Ġmer": 7633,
      "Ġleni": 7634,
      "Ġvintage": 7635,
      "ffici": 7636,
      "Ġà¤¬": 7637,
      "Ġtypes": 7638,
      "Ġclients": 7639,
      "Ab": 7640,
      "Achcha": 7641,
      "Ġsix": 7642,
      "ĠBre": 7643,
      "ĠML": 7644,
      "Ġshooting": 7645,
      "Ġtests": 7646,
      "Ġestablish": 7647,
      "Ġsamarthan": 7648,
      "vey": 7649,
      "uddh": 7650,
      "Ġrug": 7651,
      "Ġbored": 7652,
      "Ġcontract": 7653,
      "Ġtreasure": 7654,
      "Ġstores": 7655,
      "Ġpassionate": 7656,
      "Ġauthors": 7657,
      "wavid": 7658,
      "Ġkil": 7659,
      "Ġfrustration": 7660,
      "Ġfactors": 7661,
      "This": 7662,
      "Ġactions": 7663,
      "Ġguests": 7664,
      "Ġmissed": 7665,
      "Ġdownload": 7666,
      "school": 7667,
      "ker": 7668,
      "ĠSimple": 7669,
      "Ġplays": 7670,
      "haran": 7671,
      "Ġschol": 7672,
      "Ġhadn": 7673,
      "Ġrakhe": 7674,
      "Ġsamajik": 7675,
      "Ġsurgery": 7676,
      "Aaj": 7677,
      "Ġsans": 7678,
      "ĠHai": 7679,
      "Ġaccoun": 7680,
      "Ġpregn": 7681,
      "Ġprofile": 7682,
      "ĠMeri": 7683,
      "ĠFelt": 7684,
      "Ġpehna": 7685,
      "Ġjiski": 7686,
      "ftop": 7687,
      "Ġvision": 7688,
      "Ġfayde": 7689,
      "Ġmisunderstand": 7690,
      "Ġveggies": 7691,
      "ule": 7692,
      "ayen": 7693,
      "ĠDog": 7694,
      "osity": 7695,
      "Ġlake": 7696,
      "Ġentertaining": 7697,
      "oga": 7698,
      "Ġjus": 7699,
      "Ġthemes": 7700,
      "Ġinde": 7701,
      "Ġscript": 7702,
      "ĠMahal": 7703,
      "phones": 7704,
      "ĠDiv": 7705,
      "Ġkyonki": 7706,
      "Ġmummy": 7707,
      "Ġeyes": 7708,
      "Ġ23": 7709,
      "Ġdiscon": 7710,
      "respect": 7711,
      "Ġdealing": 7712,
      "Ġcrush": 7713,
      "imachal": 7714,
      "Ġexamples": 7715,
      "jana": 7716,
      "Ġhockey": 7717,
      "elds": 7718,
      "ĠDa": 7719,
      "Ġconsequ": 7720,
      "ĠVid": 7721,
      "Ġinstagram": 7722,
      "Ġsafari": 7723,
      "ĠMadras": 7724,
      "Ġcritical": 7725,
      "ĠMajor": 7726,
      "rah": 7727,
      "Ġantar": 7728,
      "Ġresume": 7729,
      "Ġfais": 7730,
      "Ġinfo": 7731,
      "Ġleader": 7732,
      "ĠFlorida": 7733,
      "Con": 7734,
      "mera": 7735,
      "tm": 7736,
      "ctures": 7737,
      "reathe": 7738,
      "wahaan": 7739,
      "Ġfulf": 7740,
      "Ġgesture": 7741,
      "ĠAfrica": 7742,
      "RO": 7743,
      "Ġsena": 7744,
      "Ġsemin": 7745,
      "ĠCamp": 7746,
      "Ġaadat": 7747,
      "ĠTechnology": 7748,
      "Ġtap": 7749,
      "ston": 7750,
      "Ġtrusted": 7751,
      "force": 7752,
      "ĠCentral": 7753,
      "ĠThink": 7754,
      "rav": 7755,
      "ĠChan": 7756,
      "ĠCoffee": 7757,
      "Ġseedha": 7758,
      "hatever": 7759,
      "folio": 7760,
      "ington": 7761,
      "Ġstarts": 7762,
      "Ġgl": 7763,
      "Ġec": 7764,
      "tificial": 7765,
      "ago": 7766,
      "Ġsoo": 7767,
      "Ġstri": 7768,
      "Ġà¤ª": 7769,
      "Ġbachega": 7770,
      "Ġjewelry": 7771,
      "chna": 7772,
      "Ġprocessing": 7773,
      "Ġsambandh": 7774,
      "Ġadhyayan": 7775,
      "Ġhaar": 7776,
      "Ġhike": 7777,
      "Ġcommute": 7778,
      "scap": 7779,
      "Ġlawyer": 7780,
      "14": 7781,
      "car": 7782,
      "antr": 7783,
      "Ġprast": 7784,
      "ĠOlymp": 7785,
      "Ġstret": 7786,
      "Really": 7787,
      "Ġintroduce": 7788,
      "Ġfurther": 7789,
      "Ġsanskriti": 7790,
      "Ġkrip": 7791,
      "Ġjaani": 7792,
      "Ġpuraskar": 7793,
      "prise": 7794,
      "Ġbuying": 7795,
      "Ġflir": 7796,
      "SE": 7797,
      "Ġkend": 7798,
      "ĠIski": 7799,
      "Ġrelatives": 7800,
      "Ġsafalta": 7801,
      "Ġdropped": 7802,
      "ĠMaharashtra": 7803,
      "Toh": 7804,
      "ancy": 7805,
      "ĠKha": 7806,
      "Ġmiles": 7807,
      "Ġmilitary": 7808,
      "Ġ26": 7809,
      "social": 7810,
      "Ġhisab": 7811,
      "Ġ1980": 7812,
      "Ġspeaker": 7813,
      "Ġhansi": 7814,
      "ghar": 7815,
      "Ġug": 7816,
      "aline": 7817,
      "Ġmeant": 7818,
      "Ġdekhein": 7819,
      "Ġpehchan": 7820,
      "Ġbolne": 7821,
      "ĠGovernment": 7822,
      "Ġstole": 7823,
      "Ġyounger": 7824,
      "Ġfairy": 7825,
      "qa": 7826,
      "itni": 7827,
      "aman": 7828,
      "Ġrare": 7829,
      "Ġamong": 7830,
      "Ġadvisor": 7831,
      "Ġpatni": 7832,
      "Ġannual": 7833,
      "came": 7834,
      "pri": 7835,
      "water": 7836,
      "kshan": 7837,
      "Ġclient": 7838,
      "Ġpratin": 7839,
      "Woah": 7840,
      "ĠBan": 7841,
      "ĠTheir": 7842,
      "Ġordered": 7843,
      "Ġobject": 7844,
      "screen": 7845,
      "umes": 7846,
      "ĠDay": 7847,
      "ĠCor": 7848,
      "certain": 7849,
      "Inter": 7850,
      "sho": 7851,
      "vable": 7852,
      "hile": 7853,
      "ĠMur": 7854,
      "Ġcomma": 7855,
      "Ġpremi": 7856,
      "Ġcardio": 7857,
      "ĠApna": 7858,
      "Nahin": 7859,
      "alon": 7860,
      "Ġgratitude": 7861,
      "Ġtheater": 7862,
      "ĠSame": 7863,
      "Ġquiz": 7864,
      "Ġtrees": 7865,
      "ĠKaun": 7866,
      "Ġjaanna": 7867,
      "Ġmanaged": 7868,
      "Ġhunt": 7869,
      "Ġsepar": 7870,
      "ĠShow": 7871,
      "Ġsamne": 7872,
      "Ġlagaya": 7873,
      "Ġrecognized": 7874,
      "Ġsambandhit": 7875,
      "Dil": 7876,
      "hicle": 7877,
      "Ġsau": 7878,
      "Ġlagana": 7879,
      "Ġgap": 7880,
      "Ġthrew": 7881,
      "Ġchef": 7882,
      "Ġanymore": 7883,
      "Ġwins": 7884,
      "Ġnegativity": 7885,
      "Ġbroken": 7886,
      "Ġsitting": 7887,
      "Ġmud": 7888,
      "Ġpow": 7889,
      "asha": 7890,
      "enty": 7891,
      "Ġexplaining": 7892,
      "Ġfully": 7893,
      "ĠFranc": 7894,
      "inations": 7895,
      "Ġcell": 7896,
      "uss": 7897,
      "Ġgram": 7898,
      "Ġpros": 7899,
      "ĠOp": 7900,
      "waah": 7901,
      "Ġworkouts": 7902,
      "Ġpichle": 7903,
      "Ġmuskura": 7904,
      "ĠSee": 7905,
      "ĠItalian": 7906,
      "Ġscoo": 7907,
      "iyat": 7908,
      "ĠOur": 7909,
      "renaline": 7910,
      "Ġorganizations": 7911,
      "phone": 7912,
      "urally": 7913,
      "esy": 7914,
      "ĠPune": 7915,
      "henga": 7916,
      "à¤¯": 7917,
      "afood": 7918,
      "Ġà¤ľ": 7919,
      "Ġchalogi": 7920,
      "Ġladai": 7921,
      "Ġmazboot": 7922,
      "Ġkan": 7923,
      "Ġwash": 7924,
      "Yaad": 7925,
      "ipment": 7926,
      "aare": 7927,
      "lag": 7928,
      "ĠAC": 7929,
      "Ġinternship": 7930,
      "Ġple": 7931,
      "Ġbaking": 7932,
      "ĠPort": 7933,
      "ĠGandhi": 7934,
      "ĠRailway": 7935,
      "watch": 7936,
      "yable": 7937,
      "ĠPo": 7938,
      "Ġleaves": 7939,
      "Ġfootprint": 7940,
      "ĠOffice": 7941,
      "Ġpurchase": 7942,
      "sive": 7943,
      "asm": 7944,
      "ĠThank": 7945,
      "Ġshower": 7946,
      "Ġreplacement": 7947,
      "ĠThailand": 7948,
      "gal": 7949,
      "asant": 7950,
      "erved": 7951,
      "Hahaha": 7952,
      "Ġdepartment": 7953,
      "Ġnibhai": 7954,
      "Ġinterviews": 7955,
      "Ġsambhala": 7956,
      "Ġversat": 7957,
      "Ġpustak": 7958,
      "aise": 7959,
      "Ġlikely": 7960,
      "Ġsomehow": 7961,
      "Ġbio": 7962,
      "Ġwriter": 7963,
      "Ġfalling": 7964,
      "try": 7965,
      "ĠAh": 7966,
      "Ġtimeless": 7967,
      "never": 7968,
      "Ġcheer": 7969,
      "Ġdiscounts": 7970,
      "Ġdialogue": 7971,
      "pot": 7972,
      "wo": 7973,
      "Ġmark": 7974,
      "Ġjaruri": 7975,
      "Ġabhinay": 7976,
      "dra": 7977,
      "Ġlinks": 7978,
      "hold": 7979,
      "Ġhomes": 7980,
      "Ġbadlav": 7981,
      "Ġdiyas": 7982,
      "Ġpurpose": 7983,
      "Ġcolleagues": 7984,
      "Ġagricult": 7985,
      "autious": 7986,
      "Ġcorp": 7987,
      "sabse": 7988,
      "Ġrequest": 7989,
      "Apne": 7990,
      "Ġtrade": 7991,
      "ĠEd": 7992,
      "Ġasha": 7993,
      "Ġamusement": 7994,
      "Ġcalling": 7995,
      "Ġlandscap": 7996,
      "Ġcasually": 7997,
      "Ġulle": 7998,
      "xy": 7999
    },
    "merges": [
      "h a",
      "Ġ k",
      "Ġ t",
      "i n",
      "č Ċ",
      "Ġ s",
      "Ġ a",
      "a r",
      "Ġ ha",
      "Ġ m",
      "a n",
      "Ġ b",
      "e r",
      "h i",
      "h e",
      "Ġha i",
      "o n",
      "Ġ p",
      "i s",
      "Ġ c",
      "y a",
      "r e",
      "a t",
      "Ġ l",
      "h o",
      "a s",
      "u s",
      "Ġ d",
      "< |",
      "| >",
      "e n",
      "i t",
      "Ġt o",
      "a l",
      "Ġ w",
      "u r",
      "in g",
      "n a",
      "e s",
      "Ġ f",
      "o r",
      "Ġk ar",
      "Ġk a",
      "Ġs a",
      "y e",
      "Ġ ho",
      "Ġm e",
      "Ġ j",
      "n e",
      "an t",
      "Ġ g",
      "u n",
      "r a",
      "Ġ e",
      "Ġk i",
      "is t",
      "c h",
      "u m",
      "as s",
      "t i",
      "Ġ I",
      "i l",
      "Ġto h",
      "t a",
      "Ġk e",
      "Ġt he",
      "Ġa ur",
      "ist ant",
      "us er",
      "ass istant",
      "o u",
      "t e",
      "Ġme in",
      "l e",
      "l y",
      "Ġ h",
      "a d",
      "Ġs e",
      "o m",
      "a g",
      "Ġb hi",
      "Ġha in",
      "Ġ na",
      "Ġ re",
      "k e",
      "Ġl i",
      "Ġ o",
      "Ġt ha",
      "Ġ ra",
      "i c",
      "Ġk o",
      "i on",
      "Ġ y",
      "a y",
      "e l",
      "n d",
      "Ġ in",
      "Ġb a",
      "e d",
      "Ġj a",
      "u t",
      "en t",
      "' s",
      "u j",
      "e k",
      "a m",
      "u l",
      "e t",
      "Ġc ha",
      "r o",
      "Ġ T",
      "uj he",
      "r i",
      "Ġe k",
      "Ġk ya",
      "Ġ it",
      "Ġs o",
      "v e",
      "Ġm a",
      "g a",
      "Ġ S",
      "i m",
      "u ch",
      "Ġ ya",
      "Ġ A",
      "Ġ un",
      "Ġy ou",
      "Ġp ar",
      "c e",
      "o l",
      "i d",
      "Ġ hi",
      "Ġ n",
      "g h",
      "Ġa nd",
      "Ġt um",
      "Ġ is",
      "o o",
      "Ġh um",
      "Ġ ye",
      "Ġl ag",
      "Ġs t",
      "c t",
      "a b",
      "s e",
      "Ġna hi",
      "Ġsa b",
      "Ġo f",
      "at a",
      "i r",
      "at ion",
      "Ġ K",
      "m a",
      "Ġl o",
      "Ġ B",
      "Ġm ujhe",
      "o w",
      "Ġ ne",
      "Ġk uch",
      "Ġa p",
      "Ġtha t",
      "Ġli ye",
      "Ġ M",
      "Ġb e",
      "t h",
      "s t",
      "Ġ v",
      "at e",
      "d a",
      "is e",
      "ha t",
      "us t",
      "Ġye h",
      "b hi",
      "g e",
      "ar e",
      "al ly",
      "Ġd e",
      "an d",
      "Ġa a",
      "Ġa l",
      "Ġ he",
      "Ġm il",
      "Ġ H",
      "gh t",
      "Ġp e",
      "ĠI t",
      "ha n",
      "on e",
      "es t",
      "Ġ z",
      "Ġsa k",
      "Ġe x",
      "u p",
      "Ġw as",
      "Ġ us",
      "k i",
      "ou t",
      "Ġd i",
      "Ġf e",
      "at h",
      "v er",
      "a h",
      "t er",
      "Ġka bhi",
      "Ġ P",
      "Ġj o",
      "p e",
      "Ġw o",
      "er i",
      "c i",
      "Ġl e",
      "Ġt hi",
      "in e",
      "ti on",
      "Ġp l",
      "Ġlag ta",
      "Ġd o",
      "Ġf or",
      "c k",
      "Ġa b",
      "Ġb an",
      "Ġ D",
      "Ġ C",
      "Ġc om",
      "Ġkar na",
      "Ġg a",
      "er e",
      "Ġkar ne",
      "ha r",
      "Ġt ho",
      "Ġc on",
      "a k",
      "en d",
      "Ġfe el",
      "Ġt h",
      "es s",
      "Ġho ta",
      "k a",
      "d i",
      "Ġ R",
      "u re",
      "o t",
      "s s",
      "Ġm o",
      "ek in",
      "r y",
      "Ġya ar",
      "hi ye",
      "oo d",
      "Ġa c",
      "Ġki ya",
      "Ġcha hiye",
      "Ġ W",
      "o ur",
      "Ġt im",
      "f e",
      "m e",
      "o us",
      "Ġb ad",
      "Ġtum he",
      "it y",
      "Ġra ha",
      "Ġ L",
      "Ġm y",
      "l l",
      "or t",
      "a an",
      "Ġ on",
      "m ent",
      "Ġtim e",
      "n i",
      "h ut",
      "Ġap ne",
      "Ġp ro",
      "' t",
      "er s",
      "om e",
      "Ġa n",
      "Ġh u",
      "u d",
      "Ġwo h",
      "Ġba hut",
      "at i",
      "Ġd ek",
      "un d",
      "Ġsa ath",
      "Ġ '",
      "Ġlo g",
      "Ġra hi",
      "a ar",
      "Ġl ekin",
      "g ar",
      "Ġw or",
      "o or",
      "l i",
      "l a",
      "id e",
      "Ġho on",
      "Ġw a",
      "Ġli ke",
      "g i",
      "Ġ r",
      "Ġ 1",
      "ha an",
      "k ul",
      "il kul",
      "Ġs ha",
      "Ġsak te",
      "ha i",
      "Ġj ust",
      "it h",
      "Ġkar te",
      "Ġb o",
      "Ġho ga",
      "Ġra he",
      "im p",
      "it e",
      "Ġma in",
      "Ġ U",
      "Ġga ya",
      "p p",
      "Ġso ch",
      "Ġpl an",
      "q u",
      "Ġ en",
      "Ġp a",
      "o p",
      "ya ar",
      "Ġs u",
      "Ġz ar",
      "l d",
      "Ġs c",
      "Ġw e",
      "Y aar",
      "k o",
      "c ha",
      "ĠK ya",
      "Ġ or",
      "en ce",
      "ho t",
      "Ġab out",
      "Ġw ith",
      "H aan",
      "d er",
      "e ga",
      "k h",
      "Ġk ha",
      "Ġex p",
      "l o",
      "Ġ F",
      "Ġ N",
      "i g",
      "Ġtho da",
      "he n",
      "Ġy our",
      "Ġ up",
      "as t",
      "Ġc an",
      "Ġ Y",
      "b e",
      "Ġt e",
      "k ing",
      "e in",
      "Ġt ra",
      "ar i",
      "an a",
      "Ġs ho",
      "Ġ G",
      "re ss",
      "Ġt u",
      "f ul",
      "Ġb ut",
      "Ġzar oor",
      "Ġ E",
      "â Ģ",
      "Ġ imp",
      "Ġa re",
      "Ġk h",
      "Ġp ad",
      "j h",
      "Ġ *",
      "Ġ J",
      "Ġ ro",
      "Ġ ri",
      "Ġko i",
      "Ġsa ma",
      "ar d",
      "i es",
      "ag e",
      "n ow",
      "an ce",
      "f f",
      "Ġg ood",
      "Ġdek h",
      "Ġa gar",
      "Ġ 2",
      "pe ci",
      "Ġre ally",
      "in d",
      "Ġa t",
      "z a",
      "ar t",
      "is h",
      "Ġcom p",
      "Ġd on",
      "ĠT hat",
      "Ġsama jh",
      "Ġg et",
      "en ge",
      ". .",
      "à ¤",
      "Ġa d",
      "Ġk it",
      "al l",
      "eri ous",
      "Ġp as",
      "Ġt ry",
      "a f",
      "Ġho ti",
      "is a",
      "k s",
      "Ġs ome",
      "i e",
      "Ġha ve",
      "o s",
      "Ġ out",
      "' m",
      "ye ga",
      "Ġpas and",
      "ya da",
      "Ġs p",
      "ing s",
      "Ġri ght",
      "h one",
      "Ġn o",
      "b le",
      "Ġp ata",
      "y un",
      "m ujhe",
      "Ġg har",
      "Ġc he",
      "il l",
      "Ġk now",
      "Ġg o",
      "Ġa s",
      "Ġba at",
      "Ġ ide",
      "il m",
      "on g",
      "Ġka am",
      "Ġin ter",
      "Ġma za",
      "k ay",
      "ic e",
      "Ġsa m",
      "Ġh on",
      "v en",
      "Ġja b",
      "hi r",
      "el l",
      "Ġc o",
      "ri end",
      "Ġm at",
      "erious ly",
      "ab le",
      "an e",
      "O h",
      "l p",
      "Ġz yada",
      "is i",
      "Ġzaroor i",
      "Ġ i",
      "it ion",
      "Ġal ag",
      "Ġpe h",
      "Ġt ak",
      "Ġhe lp",
      "m es",
      "il y",
      "a ch",
      "a ct",
      "Ġa ch",
      "i ght",
      "Ġban a",
      "en s",
      "Ġb hai",
      "Ġkar o",
      "a p",
      "Ġk yun",
      "Ġb as",
      "u e",
      "a c",
      "h ur",
      "Ġp r",
      "Ġm an",
      "t y",
      "a v",
      "Ġun he",
      "Ġs peci",
      "Ġre s",
      "ĠU n",
      "Ġbo hot",
      "Ġha r",
      "Ġho te",
      "ver y",
      "i ya",
      "Ġc l",
      "o g",
      "und s",
      "Ġaa p",
      "e p",
      "e h",
      "Ġhu a",
      "k ar",
      "Ġw hen",
      "d u",
      "Ġf ilm",
      "or m",
      "Ġw al",
      "ĠT he",
      "Ġc h",
      "' re",
      "et h",
      "ay be",
      "ay i",
      "a j",
      "ation s",
      "Ġf am",
      "Ġka ise",
      "Ġf r",
      "z ing",
      "ir f",
      "nd i",
      "Ġp re",
      "Ġs up",
      "Ġtum ne",
      "ho ol",
      "Ġo kay",
      "te d",
      "Ġthe y",
      "Ġra kh",
      "Ġs irf",
      "ĠA ur",
      "o h",
      "re y",
      "t ing",
      "Ġja ise",
      "b ilkul",
      "Ġp ra",
      "tion s",
      "Ġya ad",
      "k ya",
      "Ġide a",
      "m b",
      "o re",
      "Ġp er",
      "hur u",
      "Ġus e",
      "Ġd in",
      "Ġh er",
      "Ġa w",
      "Ġal l",
      "p s",
      "A rey",
      "Ġp hir",
      "Ġa r",
      "Ġs huru",
      "en a",
      "Ġne w",
      "Ġsu na",
      "t s",
      "ti v",
      "ĠI ndi",
      "an i",
      "Ġsak ta",
      "Ġ2 0",
      "ti c",
      "ĠB ut",
      "Ġa ma",
      "ent s",
      "n ing",
      "ĠI s",
      "in di",
      "ar y",
      "Ġf riend",
      "Ġama zing",
      "Ġ V",
      "ĠT u",
      "f in",
      "Ġsa hi",
      "a in",
      "Ġ O",
      "a ce",
      "v el",
      "Ġb ata",
      "an g",
      "af i",
      "ay s",
      "Ġimp ort",
      "s h",
      "re at",
      "Ġ1 9",
      "v ie",
      "Ġt r",
      "Ġn ot",
      "Ġtum ha",
      "d e",
      "Ġli fe",
      "Ġb est",
      "Ġwor k",
      "ou ld",
      "Ġkar ta",
      "ite ly",
      "Ġsab se",
      "Ġm us",
      "Ġka afi",
      "Ġa ata",
      "Ġsab ko",
      "Ġexp eri",
      "en e",
      "Ġfam ily",
      "ĠT um",
      "i ve",
      "c us",
      "Ġkyun ki",
      "th ing",
      "Ġk isi",
      "fin itely",
      "o y",
      "Ġba are",
      "l ine",
      "Ġthi s",
      "Ġ qu",
      "Ġth in",
      "i k",
      "Ġdon o",
      "Ġso unds",
      "Ġha pp",
      "ul t",
      "Ġun der",
      "Ġo p",
      "Ġof f",
      "Ġc re",
      "Ġpeh le",
      "T hat",
      "Ġc ho",
      "Ġma ine",
      "Ġimport ant",
      "c he",
      "Ġre h",
      "Ġkar ein",
      "Ġt a",
      "ĠH indi",
      "Ġe ven",
      "Ġba ar",
      "Ġd is",
      "Ġj is",
      "Ġap p",
      "th er",
      "ma in",
      "eth ing",
      "om ething",
      "Ġto o",
      "m o",
      "Ġd id",
      "Ġv i",
      "Ġkit na",
      "an s",
      "Ġs un",
      "Ġha d",
      "Ġcha l",
      "Ġi f",
      "al i",
      "Ġs he",
      "Ġc hi",
      "c om",
      "Ġba ad",
      "d ition",
      "u te",
      "Ġkar ti",
      "Ġd a",
      "p ort",
      "Ġaa j",
      "al th",
      "Ġw hat",
      "er v",
      "Ġkh ud",
      "Ġ (",
      "Ġe very",
      "Ġc ol",
      "h y",
      "Ġd es",
      "Ġex c",
      "Ġs omething",
      "Ġtho u",
      "Ġf un",
      "Ġst r",
      "act ly",
      "Ġg ayi",
      "c es",
      "f ic",
      "Ġit na",
      "Ġdi ya",
      ".. .",
      "Ġm ere",
      "s o",
      "Ġs m",
      "Ġm ad",
      "r it",
      "Ġinter est",
      "Ġfeel ing",
      "Ġa isa",
      "Ġwe ek",
      "st and",
      "ar a",
      "Ġun ki",
      "Ġcha n",
      "Ġf o",
      "fe ct",
      "or y",
      "c tion",
      "Ġt ri",
      "u b",
      "Ġkh us",
      "Ġhum are",
      "Ġexperi ence",
      "Ġspeci al",
      "Ġka m",
      "Ġst ress",
      "as e",
      "Ġb ol",
      "Ġp o",
      "Ġlag a",
      "oo k",
      "Ġcom m",
      "âĢ Ļ",
      "Ġga ye",
      "Ġg am",
      "Ġk al",
      "Ġp ur",
      "Ġach ha",
      "Ġg u",
      "Ġm ar",
      "Ġhe alth",
      "ta in",
      "x t",
      "ci al",
      "Ġc are",
      "Ġja yega",
      "ĠD on",
      "Ġl it",
      "Ġunder stand",
      "Ġpad ega",
      "Ġhi s",
      "ig n",
      "A r",
      "Ġan y",
      "c al",
      "Ġth ings",
      "Ġsak ti",
      "f orm",
      "j oy",
      "e m",
      "Ġm uch",
      "c ess",
      "ens ion",
      "Ġin v",
      "Ġac ha",
      "ĠS eriously",
      "t le",
      "Ġs w",
      "Ġa ise",
      "el f",
      "al s",
      "Ġun ke",
      "Ġthe m",
      "b r",
      "Ġsho w",
      "z e",
      "ar s",
      "r ou",
      "Ġlog on",
      "Ġf ir",
      "e et",
      "Ġt ar",
      "at ing",
      "Ġun ka",
      "ya d",
      "f t",
      "Ġcl ass",
      "ĠL i",
      "ic al",
      "ĠA nd",
      "Ġhi m",
      "Ġja a",
      "w a",
      "Ġcon t",
      "Ġtra dition",
      "Ġm om",
      "Ġde c",
      "Ġap ni",
      "Ġfr om",
      "v ing",
      "Ġb ilkul",
      "Ar re",
      "Ġj ata",
      "Ġa m",
      "b s",
      "Ġmil ega",
      "H e",
      "d ay",
      "ke d",
      "Ġin s",
      "re e",
      "k ha",
      "l es",
      "Ġdi ff",
      "g et",
      "Ġo ver",
      "y s",
      "ti ve",
      "j e",
      "Ġbe en",
      "Ġun hone",
      "Ġn ow",
      "is s",
      "er a",
      "m p",
      "Ġna ya",
      "Ġin c",
      "er y",
      "r ic",
      "Ġkar ke",
      "ro w",
      "ke t",
      "Ġf in",
      "mb er",
      "Ġc ar",
      "Ġon line",
      "it ies",
      "Ġw ant",
      "Ġpa as",
      "mes ha",
      "Ġha mesha",
      "Ġs eriously",
      "s elf",
      "k al",
      "ver s",
      "ĠY eh",
      "Ġmo re",
      "n er",
      "ek h",
      "Ġa bhi",
      "v ent",
      "Ġsha re",
      "Ġthin k",
      "Ġp ers",
      "Ġsc hool",
      "Ġt al",
      "or s",
      "Ġen joy",
      "Ġhon a",
      "on d",
      "Ġna am",
      "Ġt ension",
      "x actly",
      "Ġpar ty",
      "Ġd ay",
      "p ar",
      "ti mes",
      "Ġcon f",
      "us e",
      "Ġch ho",
      "Ġmo vie",
      "Ġg ot",
      "Ġt re",
      "Ġ one",
      "n ess",
      "Ġre c",
      "Ġlo cal",
      "Ġna ye",
      "Ġl a",
      "He y",
      "s un",
      "qu e",
      "a i",
      "Ġtumha re",
      "at ed",
      "Ġche ck",
      "p t",
      "u al",
      "Ġw ay",
      "Ġwa han",
      "Ġth ere",
      "Ġdo st",
      "Ġho w",
      "ĠM aybe",
      "Ġba ck",
      "Ġw ere",
      "e le",
      "ĠLi ke",
      "h ere",
      "Ġun i",
      "Ġja ata",
      "Ġte am",
      "Ġmil ta",
      "Ġaa yega",
      "r an",
      "g g",
      "in t",
      "ati ve",
      "ĠL ekin",
      "Ġne ed",
      "Ġm aybe",
      "Ġb us",
      "Ġb al",
      "Ġka un",
      "l ow",
      "' ll",
      "Ġa ct",
      "t ra",
      "Ġbad h",
      "u ally",
      "Ġke h",
      "Ġhum ein",
      "le d",
      "Ġs k",
      "Ġst art",
      "ic k",
      "ĠP ar",
      "Ġt ab",
      "Ġ à¤",
      "B ilkul",
      "el t",
      "s i",
      "Ġper fect",
      "Ġar t",
      "as h",
      "ah ul",
      "Ġ âĢ",
      "E xactly",
      "ar re",
      "Y e",
      "Ġb y",
      "Ġb et",
      "w ays",
      "Ġmus ic",
      "Ġin t",
      "l ish",
      "it ed",
      "Ġb re",
      "Ġk he",
      "Ġtradition al",
      "Ġthe ek",
      "M ujhe",
      "g y",
      "Ġinterest ing",
      "c o",
      "ur al",
      "Ġlit tle",
      "ĠY ou",
      "Ġcomp le",
      "Ġ \"",
      "Ġap na",
      "ay enge",
      "' ve",
      "Ġ es",
      "0 0",
      "Ġb it",
      "Ġka han",
      "Ġg reat",
      "Ġsha yad",
      "or ies",
      "Ġp ol",
      "M ain",
      "Ġfriend s",
      "Ġc ult",
      "i re",
      "Ġfo cus",
      "Ġa f",
      "ĠW oh",
      "Ġ 3",
      "Ġis se",
      "Ġac cha",
      "la x",
      "ĠI n",
      "u ka",
      "Ġhe ar",
      "ĠR o",
      "W ow",
      "Ġsup port",
      "Ġdiff er",
      "Ġde finitely",
      "Ġh one",
      "ĠIndi a",
      "ĠH e",
      "Ġja ana",
      "Ġf ood",
      "Ġma ke",
      "ele br",
      "Ġc ould",
      "m er",
      "Ġs ur",
      "Ġte ch",
      "Ġf elt",
      "at ure",
      "Ġd il",
      "d s",
      "Ġb ha",
      "Ġre lax",
      "Ġfir st",
      "ur n",
      "Ġse ekh",
      "h in",
      "e z",
      "Ġ -",
      "Ġkar enge",
      "du c",
      "ĠH a",
      "i v",
      "l ic",
      "ad y",
      "Ġha s",
      "Ġcha h",
      "Ġal so",
      "ĠIndi an",
      "Ġw ho",
      "ĠS ab",
      "b ha",
      "c hi",
      "Ġlo t",
      "Ġf av",
      "à ¥",
      "Ġuni que",
      "Ġc elebr",
      "Ġpers on",
      "Ġal ways",
      "ad i",
      "Ġm eri",
      "Ġse e",
      "Ġche ez",
      "ĠA n",
      "Ġgo ing",
      "Ġkar un",
      "Ġus ke",
      "l u",
      "Ġman age",
      "Ġro op",
      "Ġb ig",
      "Ġto t",
      "Ġd ena",
      "il ity",
      "I t",
      "ĠIt na",
      "ion s",
      "es ome",
      "Ġma uka",
      "Ġ20 1",
      "ĠA gar",
      "ow n",
      "T he",
      "i ye",
      "Ġhu i",
      "hi p",
      "v a",
      "it u",
      "ĠâĢ ĵ",
      "Ġl ena",
      "Ġchi ll",
      "ra m",
      "w ard",
      "n o",
      "Ġre al",
      "ĠB o",
      "Ġhum ari",
      "Ġs ti",
      "p r",
      "op le",
      "Ye ah",
      "a ha",
      "Ġcon ne",
      "Ġbet ter",
      "ĠB har",
      "peci ally",
      "Ġinv est",
      "un t",
      "Ġse t",
      "Ġdek ha",
      "ĠJ ust",
      "Ġw hi",
      "B hai",
      "oo king",
      "Ġpl ay",
      "l ab",
      "d ing",
      "ĠN e",
      "ul ar",
      "Ġn ight",
      "Ġc le",
      "ĠM ujhe",
      "Ġo ther",
      "y on",
      "je ct",
      "Ġtri p",
      "Ġthou ght",
      "u gh",
      "M y",
      "Ġkha na",
      "Ġd us",
      "Ġcare er",
      "j a",
      "Ġaa ya",
      "Ġba ch",
      "pp ing",
      "Ġsup er",
      "Ġis s",
      "Ġv al",
      "Ġkuch h",
      "Ġl ast",
      "Ġde ta",
      "Ġja ye",
      "ill s",
      "Ġl et",
      "Ġl ong",
      "Ġp yaar",
      "ĠS t",
      "w or",
      "Ġyour self",
      "m an",
      "Ġne xt",
      "Ġf re",
      "in a",
      "Ġjo b",
      "l f",
      "Ġw ill",
      "a hi",
      "p er",
      "e e",
      "com ma",
      "um b",
      "Ġtra in",
      "Ġme m",
      "Ġj ag",
      "Ġp os",
      "Ġevery thing",
      "Ġes pecially",
      "Ġpe ople",
      "ĠThe y",
      "r and",
      "Ġsw eet",
      "Ġka ha",
      "en g",
      "Ġcomple te",
      "u k",
      "ye h",
      "Ġrahe ga",
      "Ġtre nd",
      "it s",
      "ol ute",
      "Ġ ut",
      "Ġtha n",
      "n g",
      "al a",
      "Ġw ah",
      "Ġmad ad",
      "Ġm iss",
      "Ġw at",
      "Ġaw esome",
      "Ġrakh na",
      "Ġsam j",
      "Ġso cha",
      "le ase",
      "ment s",
      "olute ly",
      "Ġspeci fic",
      "Ġcol le",
      "Ġpar t",
      "Ġs uch",
      "Ġd ance",
      "f fe",
      "Ġunderstand able",
      "o d",
      "u ck",
      "Ġdid n",
      "Ġbad a",
      "âĢ ¦",
      "Ġen er",
      "Ġ 5",
      "Ġpra c",
      "Ġf a",
      "me mber",
      "i x",
      "Ġp ass",
      "ĠW e",
      "e ch",
      "Ġja ati",
      "ro und",
      "Ġg en",
      "Ġre l",
      "ĠW hat",
      "Ġkhus hi",
      "Ġlo ve",
      "me in",
      "Ġja ate",
      "Ġm on",
      "ble m",
      "c y",
      "Ġa g",
      "Ġho me",
      "Ġs ta",
      "et y",
      "v es",
      "a ki",
      "Ġaf ter",
      "y an",
      "as on",
      "Ġw ar",
      "Ġbad i",
      "Ġtot ally",
      "Ġjag ah",
      "Ġsti ll",
      "Ġt ell",
      "ci p",
      "Ġv is",
      "Ġthe ir",
      "Ġpro blem",
      "Ġchan ge",
      "Ġcon s",
      "Ġkhus h",
      "he s",
      "Ġ im",
      "Ġsa al",
      "ĠS ome",
      "A w",
      "ar ch",
      "pe ct",
      "ĠR ahul",
      "ic s",
      "Ġst re",
      "v i",
      "ya l",
      "Ġso cial",
      "ĠK a",
      "Ġdi re",
      "Ġse c",
      "Ġb u",
      "ĠS o",
      "Ġkahan i",
      "Ġthou gh",
      "Ġho gi",
      "Ġo ur",
      "in ess",
      "e gi",
      "Ġcha r",
      "Ġdekh ne",
      "Ġcha ll",
      "Ġener gy",
      "ri ya",
      "Ġs te",
      "Ġjo in",
      "Ġe as",
      "ĠE k",
      "r u",
      "Ġe le",
      "Ġdi kha",
      "Ġw ould",
      "a u",
      "ĠD e",
      "Ġban ana",
      "Ġc our",
      "ĠUn hone",
      "Ġweek end",
      "Ġd own",
      "ath er",
      "Ġgam e",
      "Ġha nd",
      "Ġdo g",
      "Ġhapp en",
      "Ġst ory",
      "Ġja han",
      "Ġs itu",
      "Ġac hi",
      "am e",
      "it al",
      "it ive",
      "Ġvi be",
      "ol og",
      "ar r",
      "Ġdekh na",
      "Ġfav or",
      "Ġsa ch",
      "Ġwa it",
      "ust r",
      "Ġ ve",
      "ck s",
      "Ġkhe l",
      "Ġcomp an",
      "ab hi",
      "Ġk is",
      "Ġsome one",
      "u kh",
      "Ġg i",
      "hi t",
      "ud get",
      "Ġki ye",
      "Ġsa ke",
      "u es",
      "ta ble",
      "k es",
      "Ġb at",
      "Ġr om",
      "Ġd un",
      "vie w",
      "Ġm ess",
      "Ġhar d",
      "Ġp hot",
      "it i",
      "Ġmil a",
      "am p",
      "ut ure",
      "di a",
      "Ġdiffer ent",
      "Ġw ell",
      "Ġcha le",
      "ĠY e",
      "ĠW a",
      "Ġplan ning",
      "Ġfavor ite",
      "c er",
      "w ab",
      "Ġbre ak",
      "ir on",
      "Ġre g",
      "der n",
      "Ġl ist",
      "Ġv ery",
      "s et",
      "Ġre p",
      "ra ct",
      "Ġhon est",
      "t en",
      "Ġs i",
      "f or",
      "Ġsk ills",
      "ation al",
      "z ed",
      "s a",
      "Ġst y",
      "Ġto ugh",
      "Ġtho se",
      "ti ce",
      "Ġre member",
      "Ġdus re",
      "Ġor g",
      "at es",
      "Ġhu e",
      "lo re",
      "Ġcomm un",
      "Ġpr om",
      "Ġfeel s",
      "ĠHa ve",
      "Ġj an",
      "Ġb ir",
      "Ġwal e",
      "Ġf ind",
      "c tive",
      "ri d",
      "Ġd ist",
      "ĠU s",
      "Ġcomplete ly",
      "Ġper form",
      "rou gh",
      "a ke",
      "es tiv",
      "Ġmil kar",
      "Ġf uture",
      "Ġus ki",
      "ĠA b",
      "m m",
      "ĠK it",
      "ĠC ha",
      "Ġm in",
      "ard en",
      "Ġsho pping",
      "Ġb hool",
      "ĠD id",
      "ag i",
      "Ġst ud",
      "ĠR iya",
      "Ġp ri",
      "Ġth ing",
      "ĠSome times",
      "b a",
      "Ġide as",
      "Ġb l",
      "Ġus se",
      "Ġhi gh",
      "Ġtar ah",
      "Ġle ar",
      "Aw w",
      "v ed",
      "Ġexc ited",
      "Ġme dia",
      "ul d",
      "v iron",
      "Ġw on",
      "Ġm ind",
      "Ġw ent",
      "Ġsa f",
      "d it",
      "Ġt ujhe",
      "t ar",
      "Ġle vel",
      "ĠR aj",
      "b ility",
      "Ġmo dern",
      "Ġmil ke",
      "viron ment",
      "olog y",
      "Ġke ep",
      "ind agi",
      "Ġja wab",
      "Ġinc re",
      "j ab",
      "ant ic",
      "Ġint o",
      "oo t",
      "Ġcult ure",
      "Ġkar ega",
      "en se",
      "u na",
      "u g",
      "Ġs erv",
      "Ġexp lore",
      "Ġ 4",
      "Ġdin ner",
      "Ġin d",
      "Ġd el",
      "Ġdes ign",
      "w n",
      "ĠRo han",
      "Ġj al",
      "Ġli ght",
      "Ġtar af",
      "Ġn ik",
      "Ġen vironment",
      "ĠT ho",
      "Ġad vent",
      "Ġg arden",
      "Ġli ya",
      "Ġy o",
      "k il",
      "Ġhapp y",
      "r at",
      "in ation",
      "Ġstr ong",
      "Ġb udget",
      "Ġwa q",
      "Ġpro cess",
      "Ġth rough",
      "Ġs imp",
      "Ġor der",
      "ow er",
      "ate in",
      "Ġas li",
      "ang u",
      "Ġmus h",
      "Ġcha lo",
      "Ġfr ustr",
      "Ġe mo",
      "Ġm as",
      "ust om",
      "ĠM ain",
      "Ġde te",
      "Ġbal ance",
      "Ġb ook",
      "en ti",
      "Ġaa ye",
      "Ġdun iya",
      "ro ve",
      "Ġb ina",
      "ĠH um",
      "Ġop tions",
      "Ġsho uld",
      "Ġpro f",
      "Ġd ri",
      "Ġtech n",
      "Ġdo es",
      "id ent",
      "Ġach he",
      "x i",
      "Ġra k",
      "Ġmush kil",
      "Ġo ld",
      "Ġpro ject",
      "Ġsitu ation",
      "en ces",
      "Ġp op",
      "a aj",
      "Ġt as",
      "Ġpro du",
      "Ġsu b",
      "ra p",
      "Ġkar ni",
      "b all",
      "Ġmo st",
      "Ġta aki",
      "j ah",
      "Ġc all",
      "Ġthin king",
      "Ġbe ech",
      "Ġwaq t",
      "ou gh",
      "Ġres p",
      "u di",
      "m i",
      "Ġa ati",
      "Ġkit ne",
      "Ġnew s",
      "Ġre t",
      "te m",
      "Ġwa jah",
      "c ted",
      "ĠTum ha",
      "ri p",
      "ĠR e",
      "Ġsa fe",
      "Ġsur pr",
      "Ġf as",
      "erv ous",
      "al ity",
      "ati v",
      "Ġins p",
      "Ġbe ing",
      "l ing",
      "Ġb ro",
      "K ya",
      "Ġad d",
      "Ġen g",
      "Ġye ar",
      "Ġrom antic",
      "Ġg row",
      "Ġha an",
      "Ġm ust",
      "re n",
      "d es",
      "ys tem",
      "ĠS he",
      "ct or",
      "Ġja ane",
      "Ġba atein",
      "ess ion",
      "Ġhonest ly",
      "Ġz indagi",
      "Ġsm all",
      "ĠB as",
      "ne y",
      "o pe",
      "Ġgam es",
      "W ah",
      "Ġany thing",
      "im ran",
      "Ġwal a",
      "Ġk ho",
      "Ġmom ent",
      "Ġsc ene",
      "s hi",
      "r on",
      "Ġmil ti",
      "Ġf estiv",
      "Ġf ol",
      "ĠD o",
      "il e",
      "Ġwor ry",
      "is ion",
      "Ġtra vel",
      "Ġhum ara",
      "Ġjis me",
      "Ġcha i",
      "Ġl angu",
      "Ġa as",
      "Ġp hone",
      "Ġg ir",
      "o se",
      "ic es",
      "Ġhon ge",
      "ic i",
      "Ġ end",
      "ativ ity",
      "Ġf l",
      "ur at",
      "s ha",
      "un ch",
      "Ġget ting",
      "Ġac tiv",
      "cus s",
      "i gh",
      "Y eh",
      "Ġb are",
      "f i",
      "r ue",
      "Ġbad al",
      "Ġn ervous",
      "Ġtr ans",
      "ĠF e",
      "c on",
      "ye in",
      "Ġmad e",
      "Ġimp rove",
      "Ġc at",
      "o i",
      "Ġja an",
      "ent ly",
      "Ġthe n",
      "Ġbana ya",
      "ul l",
      "Ġs an",
      "ro l",
      "Ġcom b",
      "p an",
      "Ġta ke",
      "d h",
      "Ġcha la",
      "Ġpre s",
      "Ġaap ko",
      "Ġbe ach",
      "Ġ ent",
      "m ed",
      "H aha",
      "Ġs ure",
      "Ġop tion",
      "Ġre ady",
      "al e",
      "is k",
      "Ġc ustom",
      "Ġsa are",
      "ta m",
      "Ġt w",
      "Ġus ka",
      "Ġc ra",
      "Ġe ff",
      "Ġsp ace",
      "Ġ20 0",
      "ant s",
      "Ġpos itive",
      "Ġs hi",
      "Ġt er",
      "ĠBhar at",
      "w ow",
      "ur i",
      "Ġmem ories",
      "Ġact ually",
      "Ġ1 8",
      "Ġsm art",
      "Ġre f",
      "Ġresp on",
      "ful ly",
      "Ġ =",
      "Ġb ant",
      "Ġhi st",
      "n y",
      "ag ar",
      "Ġsa d",
      "Ġsome times",
      "ot ally",
      "Ġs or",
      "ne d",
      "Ġka b",
      "ri ed",
      "Ġde p",
      "Ġma kes",
      "us h",
      "Ġt i",
      "Ġeas y",
      "Ġn at",
      "Ġe duc",
      "hi on",
      "ĠS ha",
      "Ġfre sh",
      "Ġcho ti",
      "ffe e",
      "Ġd ra",
      "Ġj ee",
      "ure s",
      "Ġmom ents",
      "Ġbus iness",
      "y ing",
      "Ġvi b",
      "are e",
      "est er",
      "f ore",
      "Ġwal i",
      "Ġp ress",
      "Ġpa in",
      "Ġcelebr ate",
      "Ġsp end",
      "Ġdo ing",
      "Ġcompan y",
      "oo s",
      "ĠK uch",
      "a ya",
      "Ġdis cuss",
      "re s",
      "I s",
      "Ġhum ne",
      "Ġro le",
      "Ġto p",
      "Ġban ane",
      "Ġcomm on",
      "Ġmon th",
      "ĠG o",
      "Ġs ystem",
      "Ġdo or",
      "y i",
      "Ġnik al",
      "bs olutely",
      "Ġs us",
      "Ġp ic",
      "ĠBo hot",
      "Ġoff ice",
      "Ġme i",
      "Ġn i",
      "Ġye ars",
      "Ġg rou",
      "Ġkit ni",
      "Ġme et",
      "Ġl ook",
      "Ġha m",
      "vel op",
      "Ġthe se",
      "Ġincre di",
      "ĠS imran",
      "A bsolutely",
      "Ġimp act",
      "Ġtumha ra",
      "Ġb oo",
      "ti me",
      "ĠO r",
      "Ġbata o",
      "Ġmil te",
      "Ġm era",
      "Ġhealth y",
      "Ġcolle ge",
      "id ence",
      "Ġa round",
      "Ġc al",
      "it ing",
      "han ks",
      "Ġgen er",
      "Ġcre ativity",
      "Ġdi g",
      "Ġs pe",
      "Ġr isk",
      "Ġn orm",
      "Ġfin an",
      "Ġd ar",
      "m ing",
      "li ye",
      "Ġd ays",
      "ud e",
      "Ġwor ks",
      "eri es",
      "E k",
      "t um",
      "are y",
      "or ing",
      "Ġtho di",
      "eth er",
      "Ġjal di",
      "Ġf it",
      "ĠA l",
      "d y",
      "Ġkha tam",
      "Ġun se",
      "c ho",
      "u ne",
      "Ġbad iya",
      "Ġit ne",
      "ur ing",
      "Ġda al",
      "h um",
      "Ġcha ract",
      "Ġsu gg",
      "Ġad v",
      "Ġcomp et",
      "Ġmo tiv",
      "Ġle te",
      "Ġin f",
      "Ġtechn ology",
      "Ġpress ure",
      "se arch",
      "ic ally",
      "er ve",
      "Ġnat ural",
      "Ġd ata",
      "Ġw in",
      "Ġka i",
      "Ġit ni",
      "c le",
      "ĠN o",
      "au ti",
      "Ġka isa",
      "c a",
      "l ad",
      "h ya",
      "Ġsimp le",
      "Ġg ra",
      "Ġevery one",
      "Ġwar na",
      "re en",
      "Ġfrustr ating",
      "Ġho use",
      "ar ed",
      "Ġfo und",
      "Ġa ut",
      "un g",
      "Ġbus y",
      "Ġperson al",
      "Ġim ag",
      "Ġfol low",
      "Ġre search",
      "Ġsoch ti",
      "in da",
      "Ġin st",
      "Ġco ol",
      "Ġtal k",
      "Ġv ide",
      "Ġmar ket",
      "Ġmat lab",
      "ou d",
      "or d",
      "Ġe v",
      "Ġn ature",
      "b and",
      "Ġcheez ein",
      "ĠA I",
      "Ġse ason",
      "hi k",
      "ĠUn ka",
      "Ġra at",
      "Ġus ko",
      "el s",
      "Ġpl ace",
      "Ġlear ning",
      "as tic",
      "Ġtr ust",
      "ort un",
      "ĠM o",
      "ya k",
      "ĠM a",
      "Ġp ay",
      "f riend",
      "ĠA r",
      "b y",
      "Ġcont rol",
      "ha k",
      "Ġe l",
      "vers ity",
      "Ġhi ss",
      "Ġto uch",
      "e ve",
      "i z",
      "Ġle g",
      "Ġfas hion",
      "Ġl ad",
      "Ġorg ani",
      "Ġlag ega",
      "t ty",
      "Ġnorm al",
      "Ġsa me",
      "li ght",
      "Ġp et",
      "Ġre li",
      "Ġcle an",
      "O kay",
      "Ġc lo",
      "Ġs ath",
      "Ġstr u",
[...]
